{"version":"1.0","truncation":null,"padding":null,"added_tokens":[{"id":0,"special":true,"content":"<|endoftext|>","single_word":false,"lstrip":false,"rstrip":false,"normalized":false}],"normalizer":null,"pre_tokenizer":{"type":"ByteLevel","add_prefix_space":false,"trim_offsets":true},"post_processor":{"type":"ByteLevel","add_prefix_space":true,"trim_offsets":true},"decoder":{"type":"ByteLevel","add_prefix_space":true,"trim_offsets":true},"model":{"type":"BPE","dropout":null,"unk_token":null,"continuing_subword_prefix":null,"end_of_word_suffix":null,"fuse_unk":false,"vocab":{"<|endoftext|>":0,"!":1,"\"":2,"#":3,"$":4,"%":5,"&":6,"'":7,"(":8,")":9,"*":10,"+":11,",":12,"-":13,".":14,"/":15,"0":16,"1":17,"2":18,"3":19,"4":20,"5":21,"6":22,"7":23,"8":24,"9":25,":":26,";":27,"<":28,"=":29,">":30,"?":31,"@":32,"A":33,"B":34,"C":35,"D":36,"E":37,"F":38,"G":39,"H":40,"I":41,"J":42,"K":43,"L":44,"M":45,"N":46,"O":47,"P":48,"Q":49,"R":50,"S":51,"T":52,"U":53,"V":54,"W":55,"X":56,"Y":57,"Z":58,"[":59,"\\":60,"]":61,"^":62,"_":63,"`":64,"a":65,"b":66,"c":67,"d":68,"e":69,"f":70,"g":71,"h":72,"i":73,"j":74,"k":75,"l":76,"m":77,"n":78,"o":79,"p":80,"q":81,"r":82,"s":83,"t":84,"u":85,"v":86,"w":87,"x":88,"y":89,"z":90,"{":91,"|":92,"}":93,"~":94,"¡":95,"¢":96,"£":97,"¤":98,"¥":99,"¦":100,"§":101,"¨":102,"©":103,"ª":104,"«":105,"¬":106,"®":107,"¯":108,"°":109,"±":110,"²":111,"³":112,"´":113,"µ":114,"¶":115,"·":116,"¸":117,"¹":118,"º":119,"»":120,"¼":121,"½":122,"¾":123,"¿":124,"À":125,"Á":126,"Â":127,"Ã":128,"Ä":129,"Å":130,"Æ":131,"Ç":132,"È":133,"É":134,"Ê":135,"Ë":136,"Ì":137,"Í":138,"Î":139,"Ï":140,"Ð":141,"Ñ":142,"Ò":143,"Ó":144,"Ô":145,"Õ":146,"Ö":147,"×":148,"Ø":149,"Ù":150,"Ú":151,"Û":152,"Ü":153,"Ý":154,"Þ":155,"ß":156,"à":157,"á":158,"â":159,"ã":160,"ä":161,"å":162,"æ":163,"ç":164,"è":165,"é":166,"ê":167,"ë":168,"ì":169,"í":170,"î":171,"ï":172,"ð":173,"ñ":174,"ò":175,"ó":176,"ô":177,"õ":178,"ö":179,"÷":180,"ø":181,"ù":182,"ú":183,"û":184,"ü":185,"ý":186,"þ":187,"ÿ":188,"Ā":189,"ā":190,"Ă":191,"ă":192,"Ą":193,"ą":194,"Ć":195,"ć":196,"Ĉ":197,"ĉ":198,"Ċ":199,"ċ":200,"Č":201,"č":202,"Ď":203,"ď":204,"Đ":205,"đ":206,"Ē":207,"ē":208,"Ĕ":209,"ĕ":210,"Ė":211,"ė":212,"Ę":213,"ę":214,"Ě":215,"ě":216,"Ĝ":217,"ĝ":218,"Ğ":219,"ğ":220,"Ġ":221,"ġ":222,"Ģ":223,"ģ":224,"Ĥ":225,"ĥ":226,"Ħ":227,"ħ":228,"Ĩ":229,"ĩ":230,"Ī":231,"ī":232,"Ĭ":233,"ĭ":234,"Į":235,"į":236,"İ":237,"ı":238,"Ĳ":239,"ĳ":240,"Ĵ":241,"ĵ":242,"Ķ":243,"ķ":244,"ĸ":245,"Ĺ":246,"ĺ":247,"Ļ":248,"ļ":249,"Ľ":250,"ľ":251,"Ŀ":252,"ŀ":253,"Ł":254,"ł":255,"Ń":256,"en":257,"er":258,"ch":259,"Ġd":260,"in":261,"un":262,"ie":263,"st":264,"ich":265,"Ġs":266,"Ġa":267,"ei":268,"es":269,"ein":270,"on":271,"Ġw":272,"sch":273,"Ġun":274,"el":275,"ti":276,"Ã¤":277,"Ġdie":278,"Ġi":279,"ung":280,"an":281,"Ġv":282,"as":283,"Ġn":284,"Ġein":285,"Ġder":286,"Ġz":287,"Ġm":288,"Ã¼":289,"ge":290,"Ġund":291,"ur":292,"al":293,"or":294,"gen":295,"ĠS":296,"te":297,"Ġb":298,"Ġin":299,"lich":300,"ir":301,"der":302,"Ġau":303,"Ġk":304,"em":305,"it":306,"Ġzu":307,"hr":308,"eit":309,"icht":310,"ar":311,"den":312,"et":313,"Ġist":314,"ier":315,"Ã¶":316,"ĠG":317,"ĠA":318,"ĠM":319,"Ġdas":320,"Ġal":321,"Ġh":322,"ĠE":323,"tion":324,"ĠW":325,"ĠK":326,"Ġnicht":327,"le":328,"ten":329,"ÃŁ":330,"Ġf":331,"sen":332,"is":333,"eh":334,"ĠB":335,"ter":336,"schen":337,"ra":338,"us":339,"mm":340,"Ġer":341,"Ġg":342,"Ġvon":343,"ber":344,"ind":345,"Ġwir":346,"ben":347,"Ġver":348,"Ġsich":349,"at":350,"Ġan":351,"ol":352,"Ġals":353,"ig":354,"se":355,"ĠV":356,"ĠD":357,"de":358,"ĠI":359,"Ġge":360,"ent":361,"nen":362,"pr":363,"ken":364,"ell":365,"Ġdes":366,"kt":367,"ĠP":368,"Ġbe":369,"Ġauf":370,"ĠF":371,"Ġes":372,"Ġden":373,"Ã¤n":374,"ach":375,"um":376,"bst":377,"ĠR":378,"Die":379,"je":380,"Ġeine":381,"Ã¼r":382,"Ġuns":383,"ungen":384,"Ġsie":385,"ĠN":386,"ation":387,"Ġsind":388,"om":389,"Ġmit":390,"re":391,"ĠVer":392,"ischen":393,"ĠZ":394,"Ġo":395,"ĠT":396,"elt":397,"ro":398,"nt":399,"urch":400,"elbst":401,"ĠBe":402,"Ġda":403,"Ġaus":404,"keit":405,"Ġwer":406,"Ġl":407,"au":408,"orm":409,"il":410,"ahr":411,"ft":412,"Ġwie":413,"Ġwerden":414,"Ã¼ber":415,"eu":416,"ĠU":417,"be":418,"gt":419,"tiv":420,"Ġsein":421,"and":422,"ann":423,"ĠEr":424,"ff":425,"iert":426,"ĠGe":427,"Ã¤t":428,"isch":429,"ĠH":430,"iel":431,"ĠL":432,"he":433,"etz":434,"ck":435,"Ã¶n":436,"ehr":437,"enn":438,"Ġdurch":439,"ĠIn":440,"bje":441,"Ġich":442,"Ġent":443,"rei":444,"ĠÃ¼ber":445,"ĠO":446,"Ġdem":447,"ieren":448,"Ġihr":449,"eil":450,"Ġnur":451,"Ġim":452,"ĠkÃ¶n":453,"Ġdass":454,"ktion":455,"ĠRe":456,"Ġall":457,"och":458,"ri":459,"ĠfÃ¼r":460,"ĠMen":461,"Ġst":462,"men":463,"Ġsch":464,"Ġwird":465,"liche":466,"unst":467,"lichen":468,"Ġzw":469,"Ġunser":470,"ru":471,"onder":472,"ĠPro":473,"erk":474,"ĠMa":475,"hal":476,"ĠWelt":477,"mmen":478,"zu":479,"Ġander":480,"os":481,"esch":482,"Ġauch":483,"od":484,"nis":485,"ech":486,"Ġso":487,"Ġdies":488,"Ġvor":489,"Ġoder":490,"igen":491,"Ġselbst":492,"eist":493,"schin":494,"Ġum":495,"ĠkÃ¶nnen":496,"eren":497,"ĠKunst":498,"itÃ¤t":499,"ne":500,"Ġeiner":501,"Das":502,"ze":503,"ungs":504,"ut":505,"og":506,"steh":507,"ktiv":508,"ers":509,"scha":510,"Ġ(":511,"rach":512,"heit":513,"tig":514,"end":515,"glich":516,"uÃŁ":517,"ale":518,"Ġkann":519,"ĠDen":520,"bt":521,"yst":522,"Ġmehr":523,"Ġha":524,"Ġkein":525,"issen":526,"ystem":527,"ul":528,"ĠSch":529,"imm":530,"Ġt":531,"ren":532,"tisch":533,"irn":534,"ĠGeh":535,"Ġhat":536,"Ġre":537,"ĠSt":538,"ist":539,"ische":540,"Ġdar":541,"prÃ¤":542,"Ã¼n":543,"oll":544,"ondern":545,"Ġwas":546,"ĠUn":547,"ĠMaschin":548,"Ġsondern":549,"Ã¤h":550,"omp":551,"alen":552,"op":553,"ĠSp":554,"Ġzwischen":555,"Ġe":556,"sthe":557,"igkeit":558,"bar":559,"tet":560,"âĢ":561,"eigen":562,"Ġzur":563,"ationen":564,"ĠObje":565,"am":566,"ĠAn":567,"ellen":568,"ĠMenschen":569,"ht":570,"zi":571,"Ġunter":572,"aus":573,"Ġje":574,"ern":575,"inn":576,"Ġdiese":577,"wei":578,"Ġp":579,"ing":580,"ĠSelbst":581,"Ġeinen":582,"ust":583,"ĠÃ¤":584,"Ġwenn":585,"eln":586,"bl":587,"fahr":588,"ert":589,"Ã¶glich":590,"ĠDenken":591,"ang":592,"Ã¶r":593,"In":594,"uch":595,"Ġimm":596,"fÃ¼":597,"hen":598,"ag":599,"hÃ¤n":600,"Ġman":601,"Ġimmer":602,"ik":603,"kte":604,"zes":605,"stimm":606,"Ġeinem":607,"ktur":608,"âĢĵ":609,"form":610,"Ein":611,"uf":612,"Ġkon":613,"ĠKon":614,"ĠGed":615,"Ġeigen":616,"Ġaber":617,"ĠEnt":618,"ĠdaÃŁ":619,"riff":620,"griff":621,"hm":622,"sp":623,"Ġab":624,"atur":625,"Ã¤nd":626,"schaft":627,"ick":628,"ĠâĢĵ":629,"ĠSystem":630,"ĠGehirn":631,"sein":632,"zen":633,"sten":634,"ab":635,"Ġet":636,"ll":637,"ĠAr":638,"lex":639,"leich":640,"prÃ¤sen":641,"neh":642,"und":643,"Ġmein":644,"Ã¼s":645,"Ġhin":646,"ĠHand":647,"Es":648,"eich":649,"spr":650,"ĠUm":651,"Der":652,"di":653,"per":654,"schei":655,"ĠForm":656,"ruktur":657,"Ġhaben":658,"itt":659,"ĠBew":660,"gor":661,"beit":662,"ĠVor":663,"Ġnach":664,"ĠÃ¤sthe":665,"ĠGedan":666,"ÃŁen":667,"ĠC":668,"chn":669,"Ġwieder":670,"ammen":671,"ler":672,"zie":673,"schie":674,"ĠNatur":675,"elch":676,"usst":677,"Ġetw":678,"lie":679,"ubje":680,"ver":681,"ĠEin":682,"Ġnoch":683,"Ġeines":684,"alitÃ¤t":685,"ort":686,"zeu":687,"stell":688,"assen":689,"alis":690,"ierung":691,"ĠErfahr":692,"ĠLe":693,"hl":694,"Ã¤ch":695,"Ġzum":696,"welt":697,"tischen":698,"ĠGedanken":699,"Ġwelch":700,"Ġbei":701,"her":702,"techn":703,"Ġher":704,"ĠWahr":705,"elle":706,"ĠGeist":707,"Ġges":708,"Ġihre":709,"eur":710,"Ġle":711,"ĠmÃ¼s":712,"acht":713,"ĠGegen":714,"age":715,"teil":716,"Ġr":717,"Ġtechn":718,"lichkeit":719,"ĠAus":720,"Ġnichts":721,"ild":722,"ser":723,"esen":724,"tik":725,"Ġviel":726,"Ã¼ck":727,"ĠMensch":728,"Ġdieser":729,"Ġex":730,"ommen":731,"ĠÃ":732,"ensch":733,"unktion":734,"Ġsp":735,"geb":736,"ĠProzes":737,"weise":738,"nehm":739,"du":740,"ges":741,"ot":742,"ste":743,"ĠWissen":744,"steht":745,"Ã¤higkeit":746,"Ġetwas":747,"fen":748,"ien":749,"Ġwar":750,"Ġneu":751,"ĠWerk":752,"stehen":753,"ĠErfahrung":754,"los":755,"all":756,"ĠSprach":757,"ger":758,"gel":759,"wick":760,"Ġmich":761,"ĠIch":762,"tische":763,"ĠObjekt":764,"dem":765,"mal":766,"werk":767,"Ġmensch":768,"olog":769,"Ġanderen":770,"ĠMaschine":771,"Wir":772,"hn":773,"ibt":774,"enz":775,"ĠZeit":776,"gorit":777,"lung":778,"gem":779,"ĠMod":780,"Ġunsere":781,"Ã¼nst":782,"scheid":783,"euron":784,"Ġj":785,"stÃ¤nd":786,"tieren":787,"Ġeinz":788,"ÃŁt":789,"Ġlie":790,"etzt":791,"ĠInform":792,"prÃ¤sent":793,"gan":794,"iz":795,"net":796,"ĠSubje":797,"Ġbes":798,"Ġgen":799,"irk":800,"Ġform":801,"ehen":802,"Ġkeine":803,"hmen":804,"ion":805,"rund":806,"Ġ[":807,"Ã¤l":808,"ass":809,"ĠAl":810,"ĠEn":811,"Ġalles":812,"war":813,"Ġdann":814,"anz":815,"Ġbl":816,"Ġgibt":817,"elligen":818,"halten":819,"ĠStruktur":820,"ĠMaschinen":821,"Im":822,"bei":823,"im":824,"wer":825,"stand":826,"Ã¤r":827,"auf":828,"Ġseine":829,"Ġihrer":830,"ĠSprache":831,"gra":832,"pf":833,"Ġgleich":834,"bstra":835,"ffen":836,"ult":837,"omplex":838,"usstsein":839,"pt":840,"ľber":841,"Ġweit":842,"ander":843,"Ġgew":844,"Ġgegen":845,"Ġgeht":846,"ĠFÃ¤higkeit":847,"ĠBegriff":848,"ĠLeben":849,"Wenn":850,"einander":851,"ĠGes":852,"usammen":853,"ĠNetz":854,"halb":855,"est":856,"schein":857,"Ġalso":858,"ĠInter":859,"aten":860,"ichtig":861,"Ġmir":862,"Ġbestimm":863,"Ã¤nder":864,"ĠOr":865,"ĠWahrnehm":866,"Ich":867,"gesch":868,"ha":869,"omm":870,"vor":871,"ingen":872,"Ġber":873,"bew":874,"Ġeigenen":875,"Un":876,"hy":877,"unden":878,"ĠwÃ¤":879,"Ġnie":880,"uss":881,"Diese":882,"heor":883,"ĠUmwelt":884,"agen":885,"ften":886,"uter":887,"wend":888,"Ġsei":889,"ĠSinn":890,"Ġkl":891,"ĠFunktion":892,"achen":893,"schieden":894,"ultur":895,"Sie":896,"ativ":897,"bind":898,"Ġpr":899,"bene":900,"omen":901,"ntnis":902,"ĠReprÃ¤sent":903,"Ġhabe":904,"Ã¶rper":905,"ĠmÃ¼ssen":906,"Ġexist":907,"hil":908,"hne":909,"ma":910,"Ġweil":911,"ĠfÃ¼":912,"Ġseiner":913,"ĠErken":914,"echn":915,"ĠAlgorit":916,"Er":917,"Ġsol":918,"Ġihm":919,"Ġvoll":920,"eten":921,"Ġbeg":922,"ntelligen":923,"fÃ¼hr":924,"agte":925,"spiel":926,"fin":927,"ition":928,"pl":929,"rÃ¤":930,"ym":931,"Ġ.":932,"eig":933,"tit":934,"eits":935,"Ġerst":936,"halt":937,"omputer":938,"ĠÃľber":939,"rie":940,"we":941,"anden":942,"ĠAuf":943,"Ġgem":944,"reib":945,"osop":946,"zeich":947,"hÃ¤nomen":948,"ganis":949,"hilosop":950,"iv":951,"mit":952,"ere":953,"stru":954,"Ġwahr":955,"Ġinn":956,"Ġinter":957,"deut":958,"iell":959,"Ġaller":960,"uÃŁt":961,"ĠArbeit":962,"ymb":963,"agt":964,"ige":965,"chen":966,"Ġsagte":967,"ĠmÃ¶glich":968,"ĠWirk":969,"atz":970,"reiben":971,"ĠErkenntnis":972,"ntelligenz":973,"ding":974,"ss":975,"sam":976,"Ġma":977,"alt":978,"Ġbet":979,"Ġkomplex":980,"ĠWei":981,"ĠBer":982,"raft":983,"atÃ¼r":984,"ĠTheor":985,"Ġunserer":986,"schaften":987,"ĠBewusstsein":988,"gramm":989,"ens":990,"erv":991,"ant":992,"ign":993,"Dies":994,"blem":995,"kl":996,"rÃ¼":997,"erhalb":998,"tigen":999,"ĠkÃ¼nst":1000,"ĠAu":1001,"ĠVerbind":1002,"Ġdamit":1003,"ill":1004,"Ġhatte":1005,"Eine":1006,"ĠHandl":1007,"ĠComputer":1008,"ĠSubjekt":1009,"Ã¤lt":1010,"hilosoph":1011,"ad":1012,"idu":1013,"ob":1014,"qu":1015,"inge":1016,"Ġam":1017,"Ġwissen":1018,"Ġzus":1019,"ierte":1020,"Ġverl":1021,"ĠIntelligenz":1022,"ĠNerv":1023,"Ġohne":1024,"ĠlÃ¤":1025,"ĠObjekte":1026,"hÃ¤ng":1027,"des":1028,"hnen":1029,"lau":1030,"setz":1031,"Ġwo":1032,"tiert":1033,"aler":1034,"arbeit":1035,"Ġalle":1036,"Ġfrei":1037,"Ġverschieden":1038,"att":1039,"Ġdenken":1040,"achte":1041,"ĠZusammen":1042,"bestimm":1043,"Ġandere":1044,"ktivitÃ¤t":1045,"gemein":1046,"ĠWeise":1047,"fol":1048,"kten":1049,"ritt":1050,"tz":1051,"vidu":1052,"stellen":1053,"Ġsinn":1054,"Ġbesch":1055,"ĠGrund":1056,"Ġhier":1057,"Ġgel":1058,"ĠPers":1059,"ĠTeil":1060,"echen":1061,"Ã¶glichkeit":1062,"dividu":1063,"ĠÃ¤sthetischen":1064,"Ġneue":1065,"hÃ¤lt":1066,"ogen":1067,"sicht":1068,"Ġdoch":1069,"ĠnatÃ¼r":1070,"Ġzeit":1071,"ĠhÃ¶":1072,"ĠIde":1073,"ellschaft":1074,"ĠPhÃ¤nomen":1075,"Ġbezeich":1076,"ĠNeuron":1077,"ĠkÃ¶nn":1078,"ĠProgramm":1079,"Ġdiesem":1080,"ĠzurÃ¼ck":1081,"eichen":1082,"uÃŁtsein":1083,"ap":1084,"bild":1085,"eg":1086,"fall":1087,"lÃ¶":1088,"sst":1089,"tige":1090,"Ġvom":1091,"Ġmuss":1092,"gehen":1093,"ĠEbene":1094,"ĠKop":1095,"raum":1096,"Ġvers":1097,"ĠZust":1098,"aupt":1099,"Ġentwick":1100,"ktive":1101,"ĠUnter":1102,"uster":1103,"Ġtechnischen":1104,"Ġeinzel":1105,"ĠWahrnehmung":1106,"ĠAlgorithmen":1107,"flex":1108,"itiv":1109,"sweise":1110,"tes":1111,"weit":1112,"erm":1113,"ett":1114,"ĠEx":1115,"ehmen":1116,"ration":1117,"Ġger":1118,"entr":1119,"Ġbew":1120,"roÃŁ":1121,"ĠUr":1122,"renz":1123,"zip":1124,"Ġliegt":1125,"ĠfÃ¼hr":1126,"ymbol":1127,"ĠWirklichkeit":1128,"ĠTheorie":1129,"ate":1130,"gang":1131,"mÃ¶":1132,"mus":1133,"mitt":1134,"rÃ¶":1135,"von":1136,"ĠJ":1137,"esent":1138,"Ġihnen":1139,"Ġindem":1140,"licher":1141,"ĠAb":1142,"ĠAbstra":1143,"ĠMÃ¶glichkeit":1144,"ĠKultur":1145,"Ġgesch":1146,"indet":1147,"ĠDaten":1148,"ĠDinge":1149,"ĠZu":1150,"ĠInformation":1151,"yn":1152,"Ġ-":1153,"ele":1154,"Ã¤ten":1155,"Ġdiesen":1156,"Ġment":1157,"ord":1158,"itu":1159,"ĠKI":1160,"Ġganz":1161,"Ġbesteht":1162,"Ã¤nde":1163,"ĠBedeut":1164,"Ġentsteht":1165,"ĠProblem":1166,"ĠEntwick":1167,"ĠEntscheid":1168,"ĠÃ¤sthetische":1169,"Ġwelches":1170,"ĠProzess":1171,"Ġweiter":1172,"Ġzusammen":1173,"hem":1174,"sel":1175,"eint":1176,"ange":1177,"gegen":1178,"ĠEigen":1179,"Ġverw":1180,"deu":1181,"Ġdessen":1182,"ĠRealitÃ¤t":1183,"Ġschon":1184,"ogn":1185,"zieh":1186,"ĠGeistes":1187,"ĠWissenschaft":1188,"Ġmenschliche":1189,"ĠInformationen":1190,"titÃ¤t":1191,"hÃ¤ngig":1192,"ĠAbstraktion":1193,"Al":1194,"An":1195,"if":1196,"kr":1197,"oÃŁ":1198,"ozes":1199,"sk":1200,"so":1201,"theit":1202,"vol":1203,"Ġsehr":1204,"eiÃŁt":1205,"angen":1206,"Ġeinmal":1207,"ĠSign":1208,"Ġbin":1209,"Ġbas":1210,"Ġbis":1211,"dert":1212,"ĠKÃ¶rper":1213,"teri":1214,"Ġgar":1215,"Ġverb":1216,"Ġdenen":1217,"ĠZeichen":1218,"ĠHer":1219,"odu":1220,"nisse":1221,"tigkeit":1222,"ĠDenk":1223,"Ġeben":1224,"ĠSysteme":1225,"schied":1226,"zeug":1227,"ast":1228,"gleich":1229,"mÃ¶glich":1230,"rem":1231,"zus":1232,"schau":1233,"Ã¤m":1234,"gend":1235,"ĠSo":1236,"Ġkomm":1237,"ĠheiÃŁt":1238,"lek":1239,"ĠBild":1240,"iger":1241,"ĠIden":1242,"kennen":1243,"ktu":1244,"etzen":1245,"osition":1246,"ĠKunstwerk":1247,"uÃŁen":1248,"Ġdarin":1249,"fahren":1250,"scheiden":1251,"Ġleben":1252,"Ġbesonder":1253,").":1254,"Aber":1255,"ak":1256,"doch":1257,"glichen":1258,"hin":1259,"pe":1260,"ingt":1261,"ichte":1262,"Ġwen":1263,"Ġwur":1264,"Ã¤uf":1265,"Ġmachen":1266,"gew":1267,"hrend":1268,"ĠWesen":1269,"Ġerzeu":1270,"Ġgan":1271,"inde":1272,"ats":1273,"ĠDi":1274,"Ġgest":1275,"eute":1276,"ĠIndividu":1277,"Ġentspr":1278,"immt":1279,"lieÃŁ":1280,"alisierung":1281,"Ġgesagt":1282,"ĠProzesse":1283,"lossen":1284,"ĠInterpr":1285,"hys":1286,"Ġklar":1287,"ĠlÃ¤sst":1288,"ĠNeuronen":1289,"hema":1290,"Bei":1291,"ade":1292,"bet":1293,"ckt":1294,"fach":1295,"hang":1296,"yp":1297,"Ħsthe":1298,"inden":1299,"standen":1300,"Ġsoll":1301,"ĠauÃŁ":1302,"arch":1303,"eher":1304,"ĠBesch":1305,"Ġgeb":1306,"ĠPhilosoph":1307,"ĠVerhalten":1308,"Ġoffen":1309,"ĠlÃ¶":1310,"ilden":1311,"eut":1312,"isches":1313,"zug":1314,"Ġdieses":1315,"ucht":1316,"Ġeigene":1317,"ĠHandeln":1318,"ziehen":1319,"Ġja":1320,"Ġblei":1321,"ĠOrganis":1322,"ĠReprÃ¤sentationen":1323,"Ġsolch":1324,"rieben":1325,"ĠNervenz":1326,"Ġbezeichnet":1327,"Denn":1328,"aum":1329,"fl":1330,"gÃ¤n":1331,"iolog":1332,"ke":1333,"kommen":1334,"satz":1335,"voll":1336,"inzip":1337,"Ġar":1338,"geben":1339,"Ġhand":1340,"Ġfest":1341,"Ġwirk":1342,"ĠverÃ¤nder":1343,"ĠFra":1344,"ĠTechn":1345,"ĠÃ¼berh":1346,"ktionen":1347,"Ġallen":1348,"zep":1349,"renzen":1350,"ĠGehir":1351,"Ġjedoch":1352,"hmus":1353,"abhÃ¤ngig":1354,"zieht":1355,"lieÃŁen":1356,"Ġmenschlichen":1357,"ĠModell":1358,"ĠFÃ¤higkeiten":1359,"Ġbetrach":1360,"ĠBedeutung":1361,"Da":1362,"Was":1363,"eder":1364,"ga":1365,"oder":1366,"rÃ¼n":1367,"tr":1368,"enden":1369,"iele":1370,"Ġspr":1371,"ese":1372,"Ġwichtig":1373,"Ġmacht":1374,"alten":1375,"ĠAuÃŁen":1376,"ĠMet":1377,"ĠEm":1378,"ĠBezieh":1379,"Ġdavon":1380,"Ġausge":1381,"ischer":1382,"ĠHirn":1383,"Ġzwei":1384,"ktiven":1385,"abil":1386,"ĠUmgeb":1387,"ĠbloÃŁ":1388,"Ġexistiert":1389,"ĠkÃ¶nnte":1390,"ĠKopf":1391,"flexion":1392,"remd":1393,"atsÃ¤ch":1394,"FÃ¼r":1395,"ahl":1396,"cken":1397,"dig":1398,"for":1399,"fassen":1400,"wissen":1401,"zogen":1402,"ernen":1403,"Ġdachte":1404,"unft":1405,"Ġsel":1406,"eigt":1407,"esonder":1408,"eine":1409,"Ġwesent":1410,"Ã¤ÃŁ":1411,"Ġneuron":1412,"Ġderen":1413,"ĠmuÃŁ":1414,"oren":1415,"liches":1416,"Ġkogn":1417,"emen":1418,"ark":1419,"ĠEl":1420,"ĠWort":1421,"Ġfol":1422,"Ġerschein":1423,"Ġverstehen":1424,"olle":1425,"ĠRei":1426,"ĠTier":1427,"Ġlassen":1428,"erenz":1429,"ĠreprÃ¤sen":1430,"istenz":1431,"ĠBewuÃŁtsein":1432,"Ġheraus":1433,"ĠGegenstand":1434,"stÃ¤ndnis":1435,"beitet":1436,"ĠwÃ¤re":1437,"reibung":1438,"ĠVerbindungen":1439,"mÃ¶gen":1440,"ĠInterpret":1441,"ĠPhilosophie":1442,"ĠNervenzellen":1443,"ĠÃ¼berhaupt":1444,"Ġkognitiv":1445,"Durch":1446,"Man":1447,"ekte":1448,"ider":1449,"mehr":1450,"position":1451,"ution":1452,"zw":1453,"stitu":1454,"Ġabstra":1455,"ont":1456,"Ã¤ren":1457,"Ġir":1458,"Ġihn":1459,"asst":1460,"ĠmÃ¶":1461,"ierten":1462,"ĠAktivitÃ¤t":1463,"ĠMerk":1464,"ĠKl":1465,"Ġdabei":1466,"Ġentstehen":1467,"Ġihren":1468,"Ġstatt":1469,"Ġanderes":1470,"racht":1471,"ĠSchl":1472,"Ġdarauf":1473,"ĠUnbestimm":1474,"ambet":1475,"Ġphys":1476,"ĠÃ¤uÃŁ":1477,"ĠArt":1478,"nehmen":1479,"ĠÃ¤sthetisch":1480,"stellung":1481,"ĠModelle":1482,"assung":1483,"wart":1484,"volution":1485,"ĠIdentitÃ¤t":1486,"lieÃŁlich":1487,"ĠUmgebung":1488,"ambetti":1489,"Pro":1490,"flek":1491,"lÃ¤":1492,"nung":1493,"ok":1494,"oten":1495,"ug":1496,"zt":1497,"unehmen":1498,"genbl":1499,"genommen":1500,"Ġinhalt":1501,"ĠGesch":1502,"Ġerkennen":1503,"Ġverm":1504,"Ġbegriff":1505,"ĠRel":1506,"reich":1507,"Ġobje":1508,"Ġallem":1509,"odell":1510,"ĠtatsÃ¤ch":1511,"ĠGegensatz":1512,"mals":1513,"ĠgegenÃ¼ber":1514,"Ġbereits":1515,"ĠHandlungs":1516,"ĠZusammenhang":1517,"falls":1518,"ĠExistenz":1519,"ĠUrteil":1520,"ĠInterpretation":1521,"ĠUnbestimmtheit":1522,"Wie":1523,"br":1524,"dr":1525,"durch":1526,"efin":1527,"fÃ¼r":1528,"geln":1529,"kehr":1530,"nÃ¼":1531,"rit":1532,"rinde":1533,"sl":1534,"tra":1535,"wo":1536,"xt":1537,"Ġem":1538,"Ġdir":1539,"unkt":1540,"Ġsymbol":1541,"ĠwÃ¼r":1542,"Ġwoll":1543,"ĠunabhÃ¤ngig":1544,"tier":1545,"annt":1546,"geh":1547,"ĠSie":1548,"ĠGambetti":1549,"ĠMe":1550,"ĠKraft":1551,"leben":1552,"Ġfindet":1553,"ehler":1554,"Ġglau":1555,"indung":1556,"ĠverfÃ¼":1557,"igit":1558,"Ġdenn":1559,"begriff":1560,"ĠGeb":1561,"ĠReflexion":1562,"Ġallgemein":1563,"Ġscheint":1564,"ĠMateri":1565,"echsel":1566,"utzen":1567,"Ġkeinen":1568,"baren":1569,"ĠKonstru":1570,"Ġmeinen":1571,"Ġhervor":1572,"otwend":1573,"Ġwaren":1574,"ware":1575,"ĠNetzwerk":1576,"hyt":1577,"Ġexistieren":1578,"fÃ¼hrt":1579,"Ġmater":1580,"ĠBereich":1581,"ĠPerson":1582,"hÃ¤ltnis":1583,"ĠPhÃ¤nomene":1584,"Ġeinzelnen":1585,"ategor":1586,"ĠJahr":1587,"Ġkommt":1588,"Ã¤ufig":1589,"So":1590,"amm":1591,"ezi":1592,"fa":1593,"fe":1594,"gung":1595,"off":1596,"ph":1597,"ran":1598,"weil":1599,"erst":1600,"Ġsubje":1601,"Ġaktiv":1602,"schung":1603,"Ġeinfach":1604,"Ġmeist":1605,"geg":1606,"Ġbiolog":1607,"Ġins":1608,"eter":1609,"ĠGrenzen":1610,"ĠAll":1611,"ĠMuster":1612,"ĠEvolution":1613,"ĠKÃ¼nst":1614,"ĠBet":1615,"tern":1616,"rauch":1617,"Ġerweit":1618,"Ġerfahren":1619,"ĠgrÃ¶":1620,"athema":1621,"Ġged":1622,"Ġgehen":1623,"Ġbed":1624,"ĠNicht":1625,"ĠVerarbeit":1626,"Ġdazu":1627,"aut":1628,"ĠLeist":1629,"ĠLage":1630,"ĠOper":1631,"Ġzwar":1632,"ruck":1633,"Ġanders":1634,"erseits":1635,"Ġtun":1636,"Ġjeder":1637,"ĠDenkens":1638,"Ġkonstru":1639,"Ġkonkr":1640,"llig":1641,"Ġmeine":1642,"Ġhinaus":1643,"alisiert":1644,"Ġwelche":1645,"Ġsprach":1646,"Ġformalen":1647,"ĠStrukturen":1648,"Ġbestimmten":1649,"geschlossen":1650,"Und":1651,"Unser":1652,"ĠwÃ¤hrend":1653,"ĠReprÃ¤sentation":1654,"ĠHandlungen":1655,"Ġgerade":1656,"ĠEntwicklung":1657,"Ġwurde":1658,"Ġerzeugen":1659,"ĠauÃŁerhalb":1660,"ĠAuÃŁenwelt":1661,"genblick":1662,"Dem":1663,"ekt":1664,"fÃ¤":1665,"hers":1666,"hese":1667,"rÃ¤n":1668,"wir":1669,"ynt":1670,"Ġeher":1671,"ende":1672,"Ġdeut":1673,"ichtet":1674,"ess":1675,"schl":1676,"Ã¤u":1677,"Ã¤tigkeit":1678,"aly":1679,"orden":1680,"organis":1681,"Ġint":1682,"eiten":1683,"are":1684,"ĠGen":1685,"ĠAgen":1686,"ĠAsp":1687,"ĠKategor":1688,"Ġfort":1689,"Ġverk":1690,"iges":1691,"Ġob":1692,"Ġdadurch":1693,"ĠdafÃ¼r":1694,"ausch":1695,"eug":1696,"ffassung":1697,"Ã¤tz":1698,"Ġentf":1699,"zept":1700,"ogik":1701,"ĠSpiel":1702,"ĠSystems":1703,"Ġhinein":1704,"Ġhingegen":1705,"ĠEinz":1706,"ĠLebens":1707,"maÃŁen":1708,"Ġinnerhalb":1709,"setzung":1710,"ĠfÃ¼hrt":1711,"ĠEigenschaften":1712,"Ġganze":1713,"ĠlÃ¶sen":1714,"Ġbleibt":1715,"Ġselber":1716,"),":1717,"Auf":1718,"Be":1719,"Ver":1720,"die":1721,"handen":1722,"iÃŁ":1723,"kon":1724,"modell":1725,"na":1726,"oh":1727,"ose":1728,"ron":1729,"wie":1730,"Ġ1":1731,"unter":1732,"Ġsagen":1733,"Ġweder":1734,"Ġzeigt":1735,"itÃ¤ten":1736,"arbeitet":1737,"denken":1738,"ĠAut":1739,"ĠWer":1740,"bend":1741,"proch":1742,"prozes":1743,"ache":1744,"Ġmiteinander":1745,"ĠVermÃ¶gen":1746,"ĠTe":1747,"ĠBestimm":1748,"Ġdaher":1749,"ĠlÃ¤n":1750,"Ġseinen":1751,"ĠEreig":1752,"ĠInhalt":1753,"reibt":1754,"reifen":1755,"Ġallein":1756,"Ġstruktur":1757,"ĠProdu":1758,"uliert":1759,"Ġteil":1760,"bare":1761,"Ġunterschied":1762,"ikation":1763,"Ġkonstitu":1764,"spruch":1765,"Ġgesellschaft":1766,"ologie":1767,"scheidet":1768,"ĠBegriffe":1769,"Ġinneren":1770,"ĠkÃ¼nstler":1771,"Ġverbunden":1772,"akter":1773,"ĠBeschreibung":1774,"prochen":1775,"All":1776,"Je":1777,"Kunst":1778,"bin":1779,"fft":1780,"fÃ¤higkeit":1781,"grenz":1782,"kre":1783,"muster":1784,"pp":1785,"sem":1786,"ub":1787,"wier":1788,"Ġration":1789,"erung":1790,"erungen":1791,"cht":1792,"Ġdi":1793,"Ġdis":1794,"str":1795,"stÃ¤nde":1796,"Ġabend":1797,"eitig":1798,"einen":1799,"ond":1800,"Ġwill":1801,"sche":1802,"Ġunbe":1803,"ĠvÃ¶":1804,"Ġzie":1805,"Ġzentr":1806,"Ã¼l":1807,"ĠSe":1808,"tem":1809,"text":1810,"Ġbilden":1811,"Ġbzw":1812,"Ġkommen":1813,"ement":1814,"arakter":1815,"ĠGroÃŁ":1816,"Ġheute":1817,"ĠWÃ¶r":1818,"Ġfunktion":1819,"eht":1820,"ĠBesonder":1821,"ĠgroÃŁ":1822,"ĠPar":1823,"Ġbef":1824,"ĠFl":1825,"ĠFÃ¼r":1826,"Ã¤nden":1827,"omit":1828,"ombin":1829,"ĠVersch":1830,"ĠVerstand":1831,"ĠVerhÃ¤ltnis":1832,"ĠGefÃ¼":1833,"Ġunseren":1834,"echan":1835,"Ġsozi":1836,"ĠdarÃ¼ber":1837,"Ġunterscheiden":1838,"Ġunterscheidet":1839,"Ġjedem":1840,"Ã¶rp":1841,"Ġkonn":1842,"Ã¤ndig":1843,"ĠGehirns":1844,"ĠHandlung":1845,"zeuge":1846,"Ġtechnische":1847,"ĠÃĦsthe":1848,"Ġjen":1849,"Ġbesit":1850,"Ġgewis":1851,"ĠGesellschaft":1852,"Ġbestimmt":1853,"Ġniemals":1854,"ĠSinnes":1855,"ativen":1856,"weck":1857,"dings":1858,"ĠVerbindung":1859,"ĠZustand":1860,"mittel":1861,"ifiz":1862,"oduz":1863,"ĠTechnik":1864,"ĠGehirne":1865,"diglich":1866,"Ġerscheint":1867,"ĠtatsÃ¤chlich":1868,"wohl":1869,"Ġwollen":1870,"ĠMedi":1871,"ĠgrÃ¶ÃŁ":1872,"ĠFÃ¼rst":1873,"Den":1874,"hol":1875,"ite":1876,"komm":1877,"lÃ¤nd":1878,"¦]":1879,"ster":1880,"struktur":1881,"Ġwei":1882,"Ġna":1883,"Ġnotwend":1884,"Ã¼ch":1885,"ald":1886,"ales":1887,"gende":1888,"ĠSicht":1889,"Ġbr":1890,"ĠkÃ¶rper":1891,"ichten":1892,"ĠMitt":1893,"ĠhÃ¤t":1894,"ĠhÃ¤ufig":1895,"ĠWider":1896,"ĠermÃ¶glich":1897,"Ġgeist":1898,"Ġange":1899,"ĠDie":1900,"ĠDar":1901,"ĠDis":1902,"Ġoper":1903,"fferenz":1904,"ielle":1905,"rift":1906,"Ġstell":1907,"Ġsteht":1908,"mens":1909,"ĠMaÃŁ":1910,"Ġvoraus":1911,"ysteme":1912,"Ġdaran":1913,"prÃ¤ch":1914,"Ã¤hig":1915,"âĢ¦]":1916,"Ġjede":1917,"Ġjeweil":1918,"ĠKonzep":1919,"ĠVorgÃ¤n":1920,"stellt":1921,"Ã¤cht":1922,"Ã¤chst":1923,"Ġlediglich":1924,"gele":1925,"Ġgenau":1926,"maschin":1927,"Ġsolchen":1928,"spielsweise":1929,"rÃ¤um":1930,"ĠAufga":1931,"iellen":1932,"ĠAugenblick":1933,"ĠAuffassung":1934,"Ġverschiedenen":1935,"ĠIdee":1936,"ermin":1937,"schauung":1938,"flektieren":1939,"ĠwÃ¼rde":1940,"ĠKonstruktion":1941,"rans":1942,"Ġgedacht":1943,"ĠAspekte":1944,"ĠabendlÃ¤nd":1945,"ondon":1946,"ĠWÃ¶rter":1947,"itektur":1948,"Dad":1949,"Qu":1950,"Um":1951,"ay":1952,"dung":1953,"digen":1954,"fte":1955,"kann":1956,"lassen":1957,"lage":1958,"ment":1959,"nach":1960,"ts":1961,"zÃ¼":1962,"Ġdigit":1963,"inu":1964,"inne":1965,"undert":1966,"Ġseit":1967,"Ġsehen":1968,"eind":1969,"onom":1970,"tigt":1971,"angt":1972,"Ã¼tz":1973,"uring":1974,"alog":1975,"orr":1976,"ĠSim":1977,"ĠSinne":1978,"Ġaut":1979,"Ġkultur":1980,"ĠAkte":1981,"ĠAktionen":1982,"ĠKo":1983,"ĠKri":1984,"ĠfrÃ¼":1985,"ismus":1986,"ehl":1987,"Ġversch":1988,"Ġverteil":1989,"Ġverstanden":1990,"ator":1991,"Ġget":1992,"Ġbevor":1993,"Ġbedeu":1994,"ĠRaum":1995,"Ġsieht":1996,"ĠNar":1997,"ĠNach":1998,"ĠVerstÃ¤ndnis":1999,"ĠBezug":2000,"ftware":2001,"ĠRegel":2002,"Ġschle":2003,"zeÃŁ":2004,"utz":2005,"Ã¤hl":2006,"ĠObjekten":2007,"fÃ¼ll":2008,"Ġeigent":2009,"ĠFormen":2010,"ĠBeweg":2011,"ĠVorstell":2012,"Ġetwa":2013,"ĠWahrheit":2014,"ĠProzessen":2015,"gesetzt":2016,"ĠEnsem":2017,"Ġgewesen":2018,"Ġbestimmte":2019,"ĠFunktionen":2020,"Ġproduz":2021,"pliz":2022,"titÃ¤ten":2023,"Ġgemein":2024,"Ġkomplexe":2025,"ĠPerspe":2026,"sichtlich":2027,"ĠnatÃ¼rlichen":2028,"Ġentwickeln":2029,"ĠProbleme":2030,"ĠSignale":2031,"Ġbasiert":2032,"Ġebenfalls":2033,"Ġwenig":2034,"Ġkognitiven":2035,"Ġbegriffen":2036,"ĠRelation":2037,"ĠverfÃ¼gen":2038,"ĠvÃ¶llig":2039,"ĠVerschalt":2040,"ĠermÃ¶glicht":2041,"Ġstellt":2042,"Dadurch":2043,"ĠKritik":2044,"Mit":2045,"akt":2046,"bau":2047,"det":2048,"gliche":2049,"grund":2050,"ho":2051,"hÃ¶r":2052,"iktion":2053,"immen":2054,"kunft":2055,"lei":2056,"merk":2057,"sung":2058,"sspiel":2059,"wirk":2060,"Ġus":2061,"ĠÃ¤nder":2062,"ennen":2063,"ennt":2064,"chron":2065,"chitektur":2066,"Ġdien":2067,"Ġdefin":2068,"unÃ¤chst":2069,"Ġsagt":2070,"essen":2071,"Ã¤um":2072,"Ġide":2073,"asis":2074,"Ġnun":2075,"ĠnÃ¤m":2076,"Ġkomp":2077,"art":2078,"artes":2079,"iere":2080,"ĠGel":2081,"ĠMon":2082,"ĠKind":2083,"leicht":2084,"sent":2085,"ĠBasis":2086,"rak":2087,"rativ":2088,"usion":2089,"benen":2090,"ata":2091,"ĠDas":2092,"Ġgef":2093,"pre":2094,"ĠPoten":2095,"ĠFol":2096,"ĠRhyt":2097,"ĠVers":2098,"ĠBeding":2099,"Ġlang":2100,"Ġunserem":2101,"halte":2102,"Ġvorhanden":2103,"ungsk":2104,"ulieren":2105,"ĠSchrift":2106,"istanz":2107,"Ġdarum":2108,"barkeit":2109,"ĠSelbstmodell":2110,"uchen":2111,"ikal":2112,"ĠGedÃ¤cht":2113,"spw":2114,"ĠVorhers":2115,"ĠLebew":2116,"hlen":2117,"Ġwelchem":2118,"Ġbeim":2119,"Ġvielen":2120,"Ġvielmehr":2121,"Ġneuen":2122,"gorithmen":2123,"Ġliegen":2124,"Ġformale":2125,"ĠEnde":2126,"ĠEntitÃ¤ten":2127,"ĠGesam":2128,"Ġberu":2129,"ĠFunktionsweise":2130,"finden":2131,"Ġgemacht":2132,"ive":2133,"Ġinternen":2134,"Ġinterpre":2135,"Ġkomplexen":2136,"ĠBerechn":2137,"ĠkÃ¼nstliche":2138,"Ġwissenschaft":2139,"ĠhÃ¶her":2140,"Ġeinzelne":2141,"Ġmentale":2142,"ĠEntscheidung":2143,"Ġweniger":2144,"ĠOrganisation":2145,"Ġhandeln":2146,"Ġwirklich":2147,"ĠverÃ¤ndert":2148,"Ġbetrachtet":2149,"Ġsprechen":2150,"ĠBeziehung":2151,"ĠreprÃ¤sentieren":2152,"Ġirgend":2153,"ĠÃ¤sthetischer":2154,"Ġobjektiv":2155,"Ġmeisten":2156,"ĠAllgemein":2157,"ĠKÃ¼nstler":2158,"ĠLeistungen":2159,"Unsere":2160,"ĠKategorien":2161,"Ġgewisser":2162,"ĠMittel":2163,"mension":2164,"ĠnÃ¤mlich":2165,"ĠGedÃ¤chtnis":2166,"ĠLebewesen":2167,"Aus":2168,"Dar":2169,"Dam":2170,"Nach":2171,"Sp":2172,"aben":2173,"amen":2174,"abl":2175,"eben":2176,"fern":2177,"fang":2178,"fremd":2179,"gie":2180,"hirn":2181,"kannt":2182,"pfen":2183,"punkt":2184,"setzt":2185,"wor":2186,"zusammen":2187,"zentr":2188,"Ġend":2189,"ĠprÃ¤":2190,"ĠÃ¤h":2191,"ĠQu":2192,"chnen":2193,"Ġdort":2194,"stimmen":2195,"Ġsomit":2196,"eile":2197,"ĠunmÃ¶glich":2198,"elte":2199,"tis":2200,"Ã¤ter":2201,"Ġviele":2202,"alter":2203,"orte":2204,"ĠSpr":2205,"ĠSyn":2206,"Ġben":2207,"dern":2208,"eitern":2209,"ĠGra":2210,"ĠAust":2211,"ĠEind":2212,"tionen":2213,"ĠKomp":2214,"ĠKant":2215,"isierung":2216,"ĠBei":2217,"ĠBuch":2218,"Ġerw":2219,"Ġersten":2220,"Ġgut":2221,"ĠDingen":2222,"Ġgeben":2223,"Ġgeha":2224,"pro":2225,"produ":2226,"eller":2227,"Ġbewe":2228,"Ġbeziehen":2229,"Ġbegeg":2230,"Ġdenkt":2231,"achten":2232,"ĠRes":2233,"ĠRation":2234,"Dieser":2235,"ĠNeu":2236,"ĠZiel":2237,"ĠZweck":2238,"ĠBeg":2239,"Ġauszu":2240,"Ġlernen":2241,"ahrnehm":2242,"ĠErgeb":2243,"ĠGest":2244,"Ã¤tze":2245,"ĠLogik":2246,"etze":2247,"rist":2248,"mensch":2249,"ĠschlieÃŁlich":2250,"Ġumge":2251,"ĠSchritt":2252,"Ġreflektieren":2253,"istischen":2254,"Ã¼nd":2255,"Ã¼nf":2256,"igkeiten":2257,"Ġphilosoph":2258,"ĠKont":2259,"ĠSystemen":2260,"ĠVoraus":2261,"ĠCh":2262,"usste":2263,"ildet":2264,"Ġspezi":2265,"stÃ¤ndig":2266,"werken":2267,"ĠWahrnehmungen":2268,"haft":2269,"bewusstsein":2270,"ative":2271,"fÃ¼hren":2272,"rÃ¤ger":2273,"ivers":2274,"Ġallerdings":2275,"samkeit":2276,"Ġmaschin":2277,"rÃ¼ckt":2278,"Ġverschiedene":2279,"ĠZusammenhÃ¤n":2280,"ĠnatÃ¼rlich":2281,"ĠkÃ¶nnten":2282,"bildung":2283,"lÃ¶tz":2284,"Ġversucht":2285,"ĠUnterscheid":2286,"ĠUnterschied":2287,"ĠfÃ¼hren":2288,"ĠZukunft":2289,"Ġmentalen":2290,"Ġbisher":2291,"ĠIndividuum":2292,"Ġsolcher":2293,"ĠFrage":2294,"ĠEmpf":2295,"ĠBeziehungen":2296,"Ġabstrakte":2297,"ĠUnbestimmtheitsspiel":2298,"Ġerweitern":2299,"Ġkonkreten":2300,"nahm":2301,"krete":2302,"Ġusw":2303,"Damit":2304,"ĠÃ¤hn":2305,"ĠAustausch":2306,"Ġgehabt":2307,"Ent":2308,"Nicht":2309,"aktion":2310,"etisch":2311,"fst":2312,"gst":2313,"gungen":2314,"nimmt":2315,"ole":2316,"ozi":2317,"put":2318,"renn":2319,"slos":2320,"ute":2321,"vers":2322,"wort":2323,"wÃ¤r":2324,"zeit":2325,"zeitig":2326,"Ã©":2327,"Ãľber":2328,"ÃĦsthe":2329,"Ġen":2330,"Ġqu":2331,"ente":2332,"erer":2333,"ine":2334,"Ġaktu":2335,"onst":2336,"schreiben":2337,"Ġunver":2338,"els":2339,"Ġnehmen":2340,"Ġnutzen":2341,"Ġeinge":2342,"Ġzunehmen":2343,"urs":2344,"uren":2345,"alte":2346,"orie":2347,"ĠSatz":2348,"ĠSymbol":2349,"Ġkaum":2350,"Ã¶ren":2351,"ĠAre":2352,"Ġhoch":2353,"ĠKrei":2354,"ĠKÃ¶rp":2355,"Ġfal":2356,"Ġfinden":2357,"ĠBl":2358,"ramm":2359,"Ġerkl":2360,"Ġgil":2361,"Ġverst":2362,"Ġverarbeitet":2363,"Ġanzu":2364,"ĠDenn":2365,"Ġdeshalb":2366,"Ġbestehen":2367,"Ġaufeinander":2368,"ĠFiktion":2369,"achsen":2370,"reie":2371,"ĠVern":2372,"ĠZellen":2373,"ĠZahl":2374,"ĠZeug":2375,"Ġoft":2376,"ĠTÃ¤tigkeit":2377,"ĠTuring":2378,"elbstÃ¤ndig":2379,"Ġwerde":2380,"Ġlog":2381,"Ġlange":2382,"Ġlok":2383,"Ġentscheiden":2384,"reift":2385,"ĠRede":2386,"ĠRegeln":2387,"rifft":2388,"Ġstehen":2389,"Ġstark":2390,"Ġunseres":2391,"Ġanderer":2392,"nissen":2393,"echnen":2394,"ĠSchreiben":2395,"ĠAnschauung":2396,"weif":2397,"weisen":2398,"inger":2399,"ĠSelbstges":2400,"formen":2401,"llusion":2402,"ĠArchitektur":2403,"sprozes":2404,"Ġwiederum":2405,"ĠEinheit":2406,"alismus":2407,"Ġwelchen":2408,"Ġleicht":2409,"ĠspÃ¤ter":2410,"ĠWerkzeug":2411,"gelÃ¶":2412,"ĠModus":2413,"gangen":2414,"ĠOrd":2415,"ĠAlgorithmus":2416,"Erst":2417,"eignet":2418,"reibungen":2419,"ymbole":2420,"ĠlÃ¤ÃŁt":2421,"folgen":2422,"ĠGrundlage":2423,"ĠnatÃ¼rliche":2424,"Ġzeitliche":2425,"ĠIdeen":2426,"ĠZustÃ¤nde":2427,"Ġentwickelt":2428,"ĠMÃ¶glichkeiten":2429,"ĠInformations":2430,"ynam":2431,"Algorithmen":2432,"skraft":2433,"Ġentspricht":2434,"ĠVerhaltens":2435,"Ġbetrachten":2436,"ĠElemen":2437,"ĠmÃ¶glichen":2438,"ĠMerkm":2439,"Ġphysikal":2440,"ĠGeschichte":2441,"Ġsymbolischen":2442,"Ġbiologischen":2443,"ĠBetracht":2444,"Ġkonstruieren":2445,"Ġdeutlich":2446,"ĠAgenten":2447,"prozesse":2448,"ĠEreignisse":2449,"ĠProduktion":2450,"Ġgesellschaftlichen":2451,"ĠGroÃŁhirn":2452,"Ġkonnte":2453,"ĠweiÃŁ":2454,"gelegt":2455,"Ġbedeutet":2456,"wirkungen":2457,"Ġdienen":2458,"ĠFolge":2459,"ĠgewissermaÃŁen":2460,"Ġbegegnen":2461,"ĠUnbestimmtheitsspielraum":2462,"Ġgilt":2463,"ĠGroÃŁhirnrinde":2464,"Dab":2465,"Ma":2466,"Re":2467,"Techn":2468,"Viel":2469,"War":2470,"fangen":2471,"fasst":2472,"gr":2473,"hundert":2474,"ib":2475,"kurs":2476,"lose":2477,"mata":2478,"nÃ":2479,"ner":2480,"oÃŁen":2481,"pft":2482,"rinzip":2483,"sei":2484,"sinn":2485,"wÃ¤":2486,"wischen":2487,"ªmata":2488,"Ġ,":2489,"Ġ2":2490,"ernt":2491,"ergie":2492,"Ġdu":2493,"Ġdet":2494,"Ġdest":2495,"inder":2496,"unikation":2497,"ieder":2498,"statt":2499,"icher":2500,"Ġse":2501,"Ġad":2502,"esse":2503,"Ġwor":2504,"Ġunmittel":2505,"elten":2506,"tif":2507,"anzen":2508,"Ġnimmt":2509,"Ġeindeu":2510,"Ġzer":2511,"Ġmathema":2512,"ĠSti":2513,"Ġbeh":2514,"Ġbald":2515,"Ġbspw":2516,"iter":2517,"Ġzugleich":2518,"eiter":2519,"ari":2520,"ets":2521,"Ã¶ff":2522,"ĠGer":2523,"ĠAkt":2524,"ĠEbenen":2525,"ĠWir":2526,"ĠKomplex":2527,"ĠKorr":2528,"Ġfassen":2529,"ussten":2530,"Ġgro":2531,"Ġgrund":2532,"Ġvern":2533,"ĠDet":2534,"ktom":2535,"Ġbedeut":2536,"Ġbeob":2537,"Ġbezogen":2538,"ĠFor":2539,"ĠFrei":2540,"ĠFort":2541,"ĠFall":2542,"ument":2543,"omnÃ":2544,"ĠVerk":2545,"ĠVerstehen":2546,"rochen":2547,"Ġletz":2548,"ĠErf":2549,"ĠErschein":2550,"ĠErwart":2551,"ĠLernen":2552,"ĠInhalte":2553,"Ġentstanden":2554,"Ġihrem":2555,"ĠkÃ¶nne":2556,"Ġstellen":2557,"Ġstabil":2558,"Ġstets":2559,"menschen":2560,"Ġschwier":2561,"ĠProzeÃŁ":2562,"zustellen":2563,"Ġandern":2564,"nektom":2565,"Ġmehrere":2566,"Ġtrans":2567,"istisch":2568,"ĠUnbe":2569,"stheorie":2570,"zige":2571,"Ġjedes":2572,"Ġprak":2573,"ustern":2574,"Indem":2575,"ĠKonzept":2576,"stens":2577,"Ġmeiner":2578,"Ġmeinem":2579,"ĠGedanke":2580,"lernen":2581,"alisieren":2582,"ĠWahrschein":2583,"ĠmÃ¼ssten":2584,"ĠmÃ¼sste":2585,"teilen":2586,"ĠAusd":2587,"ĠAuss":2588,"ĠWerkzeuge":2589,"gemÃ¤ÃŁ":2590,"ĠSubjektivitÃ¤t":2591,"Ġbesser":2592,"Ġgleichen":2593,"geschrieben":2594,"bewuÃŁtsein":2595,"ĠwÃ¤ren":2596,"ativitÃ¤t":2597,"Ġvollzieht":2598,"Ġbegreifen":2599,"fÃ¼hrung":2600,"ssozi":2601,"ĠBewusstseins":2602,"ensystem":2603,"Dieses":2604,"ĠhÃ¶ch":2605,"ĠProgrammierung":2606,"Ġgeschie":2607,"ĠEntscheidungen":2608,"Ġbasieren":2609,"zusagen":2610,"ĠSohn":2611,"ĠSoftware":2612,"Ġentsprechen":2613,"Ġsolche":2614,"ĠGehirnen":2615,"oderne":2616,"ĠMetho":2617,"ĠHirnrinde":2618,"wissenschaft":2619,"Ġwesentlich":2620,"Ġwesentliche":2621,"ĠReize":2622,"ĠTiere":2623,"ĠreprÃ¤sentiert":2624,"ĠBewuÃŁtseins":2625,"ĠKlass":2626,"Ġvermag":2627,"ĠUrteilskraft":2628,"ritte":2629,"Ġglaube":2630,"ĠVerarbeitung":2631,"ĠVerarbeitungs":2632,"ĠOperationen":2633,"fÃ¤hr":2634,"rÃ¤nk":2635,"wirken":2636,"alyse":2637,"ĠBestimmung":2638,"Ġziehen":2639,"ĠgroÃŁe":2640,"maschine":2641,"Ġautonom":2642,"Ġschlech":2643,"fÃ¼llt":2644,"ĠVorstellungen":2645,"Ġgemeinsam":2646,"ĠSchriftstell":2647,"ĠBerechnungen":2648,"ĠEindruck":2649,"ĠBeispiel":2650,"ĠBuchst":2651,"ĠCharakter":2652,"ĠDennett":2653,"ĠSelbstgesprÃ¤ch":2654,"Dabei":2655,"ĠgroÃŁen":2656,"omnÃªmata":2657,"ĠWahrscheinlichkeit":2658,"Ist":2659,"Nur":2660,"Von":2661,"Wichtig":2662,"ail":2663,"ahn":2664,"bilden":2665,"ce":2666,"diert":2667,"ekten":2668,"fÃ¤l":2669,"ferenz":2670,"heren":2671,"izi":2672,"lungen":2673,"lark":2674,"mut":2675,"ox":2676,"ode":2677,"ofst":2678,"sol":2679,"tritt":2680,"ud":2681,"uten":2682,"was":2683,"zunehmen":2684,"zÃ¤hl":2685,"ĠĊ":2686,"Ġur":2687,"innen":2688,"ination":2689,"ief":2690,"ies":2691,"ichtige":2692,"Ġsetzt":2693,"ĠsÃ¤m":2694,"Ġsynt":2695,"Ġsonst":2696,"Ġag":2697,"esc":2698,"scht":2699,"schritt":2700,"schlieÃŁlich":2701,"Ġunge":2702,"Ġunbew":2703,"Ġunbestimm":2704,"elie":2705,"Ã¤f":2706,"Ġiden":2707,"ank":2708,"asser":2709,"Ġnar":2710,"Ġeingeb":2711,"Ġeinzige":2712,"ĠzunÃ¤chst":2713,"Ġmod":2714,"als":2715,"genz":2716,"ĠSu":2717,"ĠSynt":2718,"ĠSymbole":2719,"tefa":2720,"tegr":2721,"Ġbein":2722,"Ġbildet":2723,"Ġinform":2724,"Ġindividu":2725,"ĠauÃŁen":2726,"Ġkri":2727,"eme":2728,"eman":2729,"Ġzut":2730,"ard":2731,"arf":2732,"denz":2733,"ierbar":2734,"ierarch":2735,"Ã¶pf":2736,"ĠAd":2737,"ĠAnt":2738,"Ġho":2739,"Ġhyp":2740,"ĠWechsel":2741,"ĠKomm":2742,"ĠKinder":2743,"legen":2744,"tention":2745,"Ġfremd":2746,"ĠfÃ¤hig":2747,"ĠBen":2748,"Ġerste":2749,"Ġerwar":2750,"indungen":2751,"atast":2752,"ĠDistanz":2753,"deckt":2754,"ĠIm":2755,"ĠIllusion":2756,"entale":2757,"prinzip":2758,"ĠPl":2759,"ĠPol":2760,"ĠPrinzip":2761,"ĠFehler":2762,"Ġessent":2763,"ĠRÃ¼ck":2764,"ĠRolle":2765,"reicht":2766,"ĠVerb":2767,"ĠTrenn":2768,"Ġausgeschlossen":2769,"ĠausschlieÃŁlich":2770,"beding":2771,"Ġseines":2772,"ĠHin":2773,"etzung":2774,"ĠÃ¼bert":2775,"ĠRechen":2776,"Ġsteu":2777,"ĠschÃ¶n":2778,"Ġschreiben":2779,"Ġschreibt":2780,"ruch":2781,"echend":2782,"Ġvorher":2783,"Dass":2784,"ungsmuster":2785,"ktivitÃ¤ten":2786,"heiten":2787,"Ġhatten":2788,"Ġreden":2789,"Ġreag":2790,"Ġrealisiert":2791,"ĠSpe":2792,"ĠAns":2793,"ĠAnwend":2794,"ĠAnspruch":2795,"ĠSelbstre":2796,"ĠSelbstorganis":2797,"ĠSelbstkon":2798,"ĠKontext":2799,"ĠKonnektom":2800,"ĠEntsteh":2801,"ĠArtefa":2802,"Ġhinsichtlich":2803,"eichern":2804,"eichert":2805,"beiten":2806,"ĠCod":2807,"lieÃŁt":2808,"ĠErfahrungen":2809,"ellektu":2810,"Ġgesp":2811,"ĠmÃ¼sse":2812,"ĠGegenwart":2813,"ĠGegenstÃ¤nde":2814,"Ġres":2815,"Ġrein":2816,"ĠrÃ¤um":2817,"Ġtechnisch":2818,"Ġvielleicht":2819,"ĠÃĦ":2820,"Ġspiel":2821,"gesprochen":2822,"ĠObjekts":2823,"ologischen":2824,"hnung":2825,"Ġjetzt":2826,"stÃ¤ndlich":2827,"Ġeinzig":2828,"Ġeinzeln":2829,"Ġgeworden":2830,"Ã¤nderungen":2831,"ĠOrt":2832,"haf":2833,"Ġseien":2834,"Ġklass":2835,"ĠvollstÃ¤ndig":2836,"ĠÃľbert":2837,"ĠÃľberzeug":2838,"weder":2839,"ĠAufmerk":2840,"Ġkomplexer":2841,"klÃ¤r":2842,"adter":2843,"quenz":2844,"setzen":2845,"folge":2846,"Ġsinnvoll":2847,"sichten":2848,"Ġbezeichnen":2849,"ĠKopp":2850,"ĠverselbstÃ¤ndig":2851,"ĠEntscheidungs":2852,"Ġebenso":2853,"ĠKunstwerks":2854,"Ġbesonderen":2855,"Ġwurden":2856,"Ġgestalten":2857,"Ġbleiben":2858,"Ġarbeiten":2859,"Ġhandelt":2860,"ĠverÃ¤ndern":2861,"ĠFrag":2862,"abilitÃ¤t":2863,"Ġneuronalen":2864,"ĠElement":2865,"ĠSchlÃ¼s":2866,"Proposition":2867,"Ġinhaltliche":2868,"kehrt":2869,"nÃ¼pft":2870,"ritten":2871,"tragen":2872,"Ġempf":2873,"ĠGebrauch":2874,"ĠNetzwerke":2875,"Ġmateriellen":2876,"ammlung":2877,"Ġintelligen":2878,"ĠEinzel":2879,"ĠAutom":2880,"ĠkÃ¼nstlerischen":2881,"grenzung":2882,"ĠGefÃ¼hl":2883,"Ġsozialen":2884,"Ġbesitzen":2885,"Ġbringen":2886,"ĠhÃ¤tten":2887,"ĠVorgÃ¤nge":2888,"ĠAufgabe":2889,"ĠSimondon":2890,"Ġverteilt":2891,"ĠNarration":2892,"Ġproduziert":2893,"ĠPerspektive":2894,"ĠRhythmus":2895,"Ġinterpretieren":2896,"ĠRationalitÃ¤t":2897,"Ġumgekehrt":2898,"Ã¼ndigkeit":2899,"nahme":2900,"ĠKreis":2901,"ĠKÃ¶rpers":2902,"ĠerklÃ¤ren":2903,"ĠOrdnung":2904,"Maschin":2905,"Ġdesto":2906,"Ġbedeutungs":2907,"ĠFreiheit":2908,"ĠAusdruck":2909,"Ġgeschieht":2910,"rÃ¤nkung":2911,"ofstadter":2912,"ĠsÃ¤mt":2913,"Ġnarrativ":2914,"ĠKommunikation":2915,"atastro":2916,"Ġessentiell":2917,"ĠTrennung":2918,"ĠSelbstorganisation":2919,"ĠAufmerksamkeit":2920,"Auch":2921,"Clark":2922,"Doch":2923,"Form":2924,"Mentale":2925,"Neuron":2926,"St":2927,"Selbst":2928,"Systeme":2929,"[âĢ¦]":2930,"ater":2931,"atisch":2932,"atik":2933,"affen":2934,"brochen":2935,"cod":2936,"ed":2937,"etischen":2938,"hand":2939,"kel":2940,"kri":2941,"kÃ¼nf":2942,"mÃ¤ÃŁ":2943,"no":2944,"osen":2945,"olek":2946,"rt":2947,"ry":2948,"run":2949,"win":2950,"xi":2951,"yber":2952,"Ġch":2953,"ĠÃ¼":2954,"Ġra":2955,"ĠprÃ¤sen":2956,"enkt":2957,"Ġdrei":2958,"ieur":2959,"iegel":2960,"stren":2961,"stuf":2962,"Ġsug":2963,"Ġsub":2964,"Ġabl":2965,"eib":2966,"Ġwechsel":2967,"Ġunend":2968,"asi":2969,"Ġnennt":2970,"Ġeinzu":2971,"Ġzeich":2972,"Ġmechan":2973,"Ã¼st":2974,"Ã¼le":2975,"ĠSach":2976,"teten":2977,"Ġbeher":2978,"Ġintegr":2979,"irne":2980,"derung":2981,"derungen":2982,"Ġkombin":2983,"Ġkennen":2984,"embl":2985,"itz":2986,"aren":2987,"artig":2988,"ettet":2989,"ierungen":2990,"Ã¶pfen":2991,"ĠGan":2992,"ĠGrÃ¼n":2993,"ĠMathema":2994,"ĠMiÃŁ":2995,"ĠMustern":2996,"Ġheu":2997,"Ġhist":2998,"ĠEs":2999,"ĠWert":3000,"ĠKre":3001,"ĠKogn":3002,"leb":3003,"Ġfehl":3004,"tere":3005,"ragen":3006,"Ġerl":3007,"Ġerinn":3008,"Ġerlau":3009,"Ġerleben":3010,"Ġgab":3011,"Ġverab":3012,"Ġverwend":3013,"igt":3014,"ĠDu":3015,"ĠDefin":3016,"elles":3017,"ktor":3018,"Ġbezieht":3019,"Ġbestimmen":3020,"Ġaufgrund":3021,"oman":3022,"oment":3023,"ĠVermitt":3024,"ĠTo":3025,"ĠTag":3026,"ĠThema":3027,"roffen":3028,"ausen":3029,"aufen":3030,"ilie":3031,"Ġseinem":3032,"ĠErweit":3033,"ĠGew":3034,"ĠHe":3035,"ĠHil":3036,"ĠHyp":3037,"ĠLu":3038,"ĠLÃ¶":3039,"ĠLern":3040,"ĠLiter":3041,"ĠInst":3042,"ĠInstr":3043,"Ġentzieht":3044,"Ġentweder":3045,"ierenden":3046,"Ġimpliz":3047,"rib":3048,"rigen":3049,"Ġschwer":3050,"ĠschlieÃŁen":3051,"ĠschlÃ¤":3052,"Ġscheitern":3053,"rupp":3054,"ĠProposition":3055,"Ġandererseits":3056,"ositiv":3057,"echs":3058,"Ġsowohl":3059,"Ġsozusagen":3060,"Ġumfassen":3061,"ĠKunstbegriff":3062,"ogramm":3063,"erson":3064,"ersetzung":3065,"rache":3066,"ĠSchein":3067,"ĠGehalt":3068,"Ġredu":3069,"Ġrechnen":3070,"ĠStand":3071,"Ġdarf":3072,"Ġdaraus":3073,"ĠUnivers":3074,"bares":3075,"ĠAnalyse":3076,"zipl":3077,"Ġjeden":3078,"innerungen":3079,"ĠphÃ¤nomen":3080,"ĠSelbstbewusstsein":3081,"bles":3082,"Ġeigenes":3083,"ĠEntfremd":3084,"Ġetc":3085,"ĠArten":3086,"ĠUmgang":3087,"Ġwiederhol":3088,"verarbeit":3089,"verstÃ¤ndnis":3090,"Ġbeispielsweise":3091,"Ġgesam":3092,"Ġlegt":3093,"Ġrichtig":3094,"ĠAuseinander":3095,"ĠAusfÃ¼hrung":3096,"Ã¼cke":3097,"Ġexter":3098,"gesehen":3099,"ott":3100,"ĠWissenschaften":3101,"ĠWerke":3102,"ĠWerks":3103,"gerichtet":3104,"ĠIchs":3105,"prÃ¤sentationen":3106,"izieren":3107,"Ġgenommen":3108,"Ġformuliert":3109,"Ġ[âĢ¦]":3110,"werdung":3111,"Ã¤rken":3112,"ĠNetzwerken":3113,"Ġklein":3114,"Ġpro":3115,"ĠfÃ¼hl":3116,"Ġvollkommen":3117,"Ġbegrenz":3118,"plemen":3119,"rÃ¤fte":3120,"Ġwahrschein":3121,"Ġwahrnehmen":3122,"Ġinterne":3123,"altung":3124,"antwort":3125,"rÃ¼cken":3126,"ĠkÃ¼nstlichen":3127,"ĠNervensystem":3128,"Ġwohl":3129,"Ġsinnliche":3130,"Ġbeschreiben":3131,"Ġbeschrieben":3132,"ĠbeschÃ¤f":3133,"Ġhierarch":3134,"ĠhÃ¶heren":3135,"ĠPhÃ¤nomenen":3136,"apier":3137,"esentlich":3138,"Ġgeschlossen":3139,"ordnen":3140,"Ġverwand":3141,"Als":3142,"ĠSignalen":3143,"zusehen":3144,"Ġkommun":3145,"Ġbesonders":3146,"Ġerzeugt":3147,"Ġganzen":3148,"ĠDimension":3149,"ĠIndividuen":3150,"Ġsollte":3151,"ĠauÃŁer":3152,"Ġgebunden":3153,"Ġgebracht":3154,"Ġoffenen":3155,"ĠHandelns":3156,"Dennett":3157,"Ġfestgelegt":3158,"Ġspricht":3159,"ĠausgefÃ¼hrt":3160,"wissenschaften":3161,"Ġfolgt":3162,"Ġerscheinen":3163,"ĠMerkmal":3164,"ĠSchluss":3165,"reichen":3166,"nÃ¼pf":3167,"Ġdirekt":3168,"Ġglauben":3169,"Ġmaterielle":3170,"ĠJahrhundert":3171,"Ġsprachlich":3172,"schlag":3173,"alys":3174,"ĠfortwÃ¤":3175,"ĠverknÃ¼pft":3176,"eugier":3177,"Bew":3178,"ĠTex":3179,"ĠlÃ¤ngst":3180,"Ġstrukturiert":3181,"Ġdient":3182,"Ġdiskr":3183,"Ġzentral":3184,"Ġjene":3185,"ĠMedien":3186,"kommt":3187,"ĠDarstellung":3188,"Ġoperieren":3189,"Ġjeweils":3190,"ĠabendlÃ¤ndische":3191,"ĠKoord":3192,"Ġverschw":3193,"Ġeigentlich":3194,"ĠEnsembles":3195,"hÃ¶rt":3196,"ĠÃ¤ndern":3197,"Ġdefiniert":3198,"ĠVorhersage":3199,"zusammenhÃ¤n":3200,"produktion":3201,"Ġspezif":3202,"ĠZusammenhÃ¤nge":3203,"ĠUnterscheidung":3204,"ÃĦsthetische":3205,"Ġzunehmend":3206,"ĠSymbolen":3207,"ĠBlick":3208,"ĠVernunft":3209,"gelÃ¶st":3210,"ĠMerkmale":3211,"Vielmehr":3212,"Warum":3213,"Ġdetermin":3214,"Ġunmittelbar":3215,"ĠKomplexitÃ¤t":3216,"ĠErfindung":3217,"escartes":3218,"ĠhypomnÃªmata":3219,"ĠWechselwirkungen":3220,"Ġreagieren":3221,"ĠSelbstkonzept":3222,"ĠsÃ¤mtliche":3223,"yberne":3224,"ĠMathematik":3225,"Ġhistor":3226,"ĠKognition":3227,"ĠDefinition":3228,"ĠHypot":3229,"ĠLiteratur":3230,"ĠschlÃ¤gt":3231,"ziplin":3232,"ĠEntfremdung":3233,"CH":3234,"Eben":3235,"Ger":3236,"Geh":3237,"Hier":3238,"Hand":3239,"Laut":3240,"NS":3241,"Ob":3242,"Ohne":3243,"Sch":3244,"Singer":3245,"Wesentlich":3246,"Zust":3247,"Zusammen":3248,"ack":3249,"aktionen":3250,"bas":3251,"ble":3252,"ci":3253,"das":3254,"dliche":3255,"drÃ¼ckt":3256,"fer":3257,"funktion":3258,"gibt":3259,"greifen":3260,"ix":3261,"kind":3262,"kro":3263,"lungs":3264,"lagen":3265,"macht":3266,"oben":3267,"richt":3268,"rang":3269,"sÃ¤tz":3270,"sfÃ¤higkeit":3271,"sicher":3272,"tÃ¤":3273,"ven":3274,"wert":3275,"wahrnehm":3276,"xis":3277,"zahl":3278,"zweif":3279,"Ġ'":3280,"Ġel":3281,"Ġont":3282,"erlich":3283,"erten":3284,"erken":3285,"erkennen":3286,"Ġde":3287,"inst":3288,"Ġsage":3289,"Ġsim":3290,"Ġak":3291,"eim":3292,"Ġwider":3293,"Ġunvor":3294,"Ġununter":3295,"elbe":3296,"elationen":3297,"Ã¤ll":3298,"Ã¤renz":3299,"anten":3300,"anent":3301,"ĠnÃ¶":3302,"Ġnorm":3303,"ĠnÃ¤h":3304,"Ġnatur":3305,"ĠnÃ¤ch":3306,"Ġneur":3307,"Ġzeigen":3308,"Ġzerst":3309,"gest":3310,"gefÃ¼hrt":3311,"urt":3312,"urz":3313,"alk":3314,"altet":3315,"alitÃ¤ten":3316,"alÃ©":3317,"orgen":3318,"ĠSache":3319,"ĠSÃ¤tze":3320,"tegra":3321,"Ġinf":3322,"licht":3323,"ĠzukÃ¼nf":3324,"hren":3325,"ichtung":3326,"etwas":3327,"ĠGrun":3328,"ĠAktion":3329,"ĠMein":3330,"ĠMan":3331,"ĠMoment":3332,"ĠhÃ¤n":3333,"Ġhil":3334,"ĠEing":3335,"ĠWil":3336,"ĠWelle":3337,"ĠWorte":3338,"ĠWieder":3339,"Ġfehler":3340,"isu":3341,"ĠBele":3342,"ĠBindung":3343,"teration":3344,"raxis":3345,"Ġersch":3346,"Ġerhalten":3347,"Ġerfol":3348,"ĠerhÃ¤lt":3349,"ĠerfÃ¼llt":3350,"bert":3351,"Ġversteht":3352,"Ġvertritt":3353,"Ġsicher":3354,"Ġanschau":3355,"Ġanfangen":3356,"Ġanstatt":3357,"Ġanalys":3358,"ĠVari":3359,"ĠDo":3360,"ĠDel":3361,"ĠDurch":3362,"ĠIteration":3363,"Ġgeh":3364,"Ġgekommen":3365,"Ġgeeignet":3366,"ĠgehÃ¶rt":3367,"ĠPh":3368,"ĠPraxis":3369,"ĠFre":3370,"Ġdenke":3371,"Ġmitt":3372,"ĠZuf":3373,"ĠZwischen":3374,"Ġober":3375,"ĠTon":3376,"ĠTit":3377,"ĠTeile":3378,"rotz":3379,"Ġlei":3380,"Ġlim":3381,"ffizi":3382,"iertes":3383,"ĠHaupt":3384,"ĠHard":3385,"ĠHierarch":3386,"etzte":3387,"ehrt":3388,"Ġentdeckt":3389,"ĠalltÃ¤":3390,"Ġstimmt":3391,"Ġschn":3392,"Ġzweiten":3393,"zusch":3394,"echnet":3395,"Ġsowie":3396,"Ġvorstellen":3397,"utput":3398,"schaffen":3399,"tigung":3400,"Ġkeiner":3401,"ulation":3402,"Ġtut":3403,"Ġreg":3404,"Ġreflex":3405,"ĠStat":3406,"ĠStoff":3407,"Ġep":3408,"auso":3409,"weis":3410,"weite":3411,"Ġpo":3412,"Ġpar":3413,"Ġperm":3414,"ĠplÃ¶tz":3415,"Ġpositiv":3416,"Ġkont":3417,"Ġmeint":3418,"sprung":3419,"sprÃ¼n":3420,"sprechen":3421,"dien":3422,"ĠFormalisierung":3423,"ĠVorgang":3424,"ĠVorstellung":3425,"ĠCha":3426,"ĠCode":3427,"alisierte":3428,"ĠLev":3429,"Ġwelcher":3430,"Ġbeiden":3431,"Ġherzustellen":3432,"Ġgesetzt":3433,"Ġlebt":3434,"ĠrÃ¼ck":3435,"Ġtechnisches":3436,"ĠAusgang":3437,"ĠMenschheit":3438,"Ġspeichern":3439,"duktion":3440,"gessen":3441,"otel":3442,"Ġneuer":3443,"losigkeit":3444,"werke":3445,"ologien":3446,"Ã¼nstler":3447,"stÃ¤ndiges":3448,"prÃ¤sentation":3449,"Ġgenug":3450,"Ġgenauso":3451,"werfen":3452,"Ġgleiche":3453,"Ġgleichsam":3454,"Ġgleichzeitig":3455,"Ġgewissen":3456,"ĠInteresse":3457,"ĠWahrnehmungs":3458,"Ġberechnen":3459,"Ġnieder":3460,"Ġprinzip":3461,"Ġsolange":3462,"Ġerster":3463,"weg":3464,"Ġgemeint":3465,"Ġwahrgenommen":3466,"ĠArbeiter":3467,"ĠErkenntnisse":3468,"ssembl":3469,"Ġbetrifft":3470,"ĠTheorien":3471,"ignalen":3472,"klass":3473,"ĠComputers":3474,"ĠSubjekts":3475,"adox":3476,"ĠzusÃ¤tz":3477,"setzungen":3478,"Ġfreien":3479,"Ġgelangen":3480,"Ġzeitlich":3481,"lÃ¶s":3482,"ĠZustÃ¤nden":3483,"Ġentwickelte":3484,"Ġbewir":3485,"Ġbewusst":3486,"ĠUrsprung":3487,"mÃ¶glichen":3488,"ynchron":3489,"elev":3490,"ordnet":3491,"Ander":3492,"skop":3493,"ĠSignal":3494,"ĠBildung":3495,"Ġlebensl":3496,"Ġsollten":3497,"archien":3498,"ĠlÃ¶st":3499,"ĠOrganismen":3500,"ĠOrganismus":3501,"Ġarbeitet":3502,"ĠHirnare":3503,"fordert":3504,"Ġneuronale":3505,"Ġneuronaler":3506,"Ġfolgen":3507,"Ġkognitive":3508,"ontan":3509,"ĠÃ¤uÃŁeren":3510,"ĠÃ¤uÃŁere":3511,"ĠRelationen":3512,"Ġdirekten":3513,"tierte":3514,"tierten":3515,"Ġallgemeinen":3516,"ĠMaterial":3517,"ĠMaterialitÃ¤t":3518,"Ġsubjektive":3519,"Ġsubjektiven":3520,"eterarchien":3521,"ĠOperation":3522,"Ġintellektu":3523,"ĠGener":3524,"Ġentfernt":3525,"ohÃ¤ren":3526,"ohÃ¤renz":3527,"Ġ18":3528,"Ġ19":3529,"ĠWerden":3530,"ĠlÃ¤nger":3531,"Ġunterschiedlichen":3532,"Ġkonstituiert":3533,"Ġkonstituieren":3534,"ĠkÃ¼nstlerische":3535,"Alles":3536,"pping":3537,"ubner":3538,"ĠSeele":3539,"templ":3540,"Ġbesitzt":3541,"ĠMedium":3542,"ĠgrÃ¶ÃŁeren":3543,"Denken":3544,"Ġnahe":3545,"ĠSichtweise":3546,"ĠhÃ¤tte":3547,"Ġangep":3548,"Ġjeweiligen":3549,"ĠKonzeption":3550,"ĠVorgÃ¤ngen":3551,"rÃ¤ume":3552,"ĠAufgaben":3553,"zÃ¼ge":3554,"Ġdigital":3555,"inuier":3556,"ĠAkteur":3557,"ĠfrÃ¼her":3558,"atorischen":3559,"utzer":3560,"ĠBewegung":3561,"ĠEnsemble":3562,"Ġkompl":3563,"ĠKindes":3564,"Ġgefunden":3565,"ĠBedingung":3566,"ĠBedingungen":3567,"ungskraft":3568,"ĠGesamts":3569,"ĠAllgemeinen":3570,"ĠSprechen":3571,"Ġbewegt":3572,"ĠGestalt":3573,"ristotel":3574,"ĠVoraussetzung":3575,"versetzen":3576,"Ġfalsch":3577,"ĠElemente":3578,"Ġphysikalischen":3579,"ĠDetail":3580,"ĠForsch":3581,"ĠFortschritt":3582,"ĠVerknÃ¼pf":3583,"Ġletzten":3584,"Ġschwierig":3585,"ĠMethoden":3586,"ĠKlassifiz":3587,"ĠSchriftsteller":3588,"ĠBuchstaben":3589,"ĠursprÃ¼n":3590,"Ġagieren":3591,"ĠrÃ¤umlich":3592,"ĠKopplung":3593,"Maschinen":3594,"atastrop":3595,"Ġsugger":3596,"Ġsubs":3597,"Ġablaufen":3598,"Ġzeichnet":3599,"Ġbeherr":3600,"ĠGanze":3601,"ĠVermittlung":3602,"ĠTool":3603,"Ġreduz":3604,"ĠAuseinandersetzung":3605,"Ġwahrscheinlich":3606,"Ġkommunizieren":3607,"ĠfortwÃ¤hrend":3608,"Gerade":3609,"Gehirne":3610,"Ġununterbrochen":3611,"alÃ©ry":3612,"ĠGrunde":3613,"ĠWille":3614,"Ġpermanent":3615,"Ġprinzipiell":3616,"Ar":3617,"Dann":3618,"Gleich":3619,"Hofstadter":3620,"Ihr":3621,"Ja":3622,"Jeder":3623,"Mein":3624,"Mensch":3625,"Vor":3626,"Verm":3627,"Weil":3628,"Wahrnehm":3629,"Zu":3630,"atischen":3631,"bung":3632,"bische":3633,"brauch":3634,"bruch":3635,"ca":3636,"dust":3637,"ek":3638,"egen":3639,"etig":3640,"fÃ¤hig":3641,"frist":3642,"gar":3643,"gÃ¼l":3644,"id":3645,"ip":3646,"itik":3647,"itieren":3648,"kund":3649,"ktik":3650,"leist":3651,"lÃ¼ck":3652,"losen":3653,"nungen":3654,"niz":3655,"oti":3656,"oop":3657,"ses":3658,"sehen":3659,"smuster":3660,"seitig":3661,"sieur":3662,"ue":3663,"wur":3664,"wenden":3665,"zin":3666,"zur":3667,"ziel":3668,"ĠÃ¶ff":3669,"enzen":3670,"erweise":3671,"Ġdist":3672,"Ġdynam":3673,"Ġdritten":3674,"inter":3675,"innt":3676,"under":3677,"unkte":3678,"ieÃŁen":3679,"iegeln":3680,"steine":3681,"stÃ¤nden":3682,"Ġseman":3683,"Ġassozi":3684,"eiger":3685,"esp":3686,"esser":3687,"esitz":3688,"Ġwom":3689,"Ġworden":3690,"schn":3691,"scheute":3692,"Ã¤b":3693,"Ã¤be":3694,"Ã¤uÃŁ":3695,"Ġvisu":3696,"Ġeinf":3697,"Ġeinher":3698,"Ġmag":3699,"Ġmoderne":3700,"Ã¼gt":3701,"geht":3702,"gegeben":3703,"organ":3704,"orno":3705,"genann":3706,"ĠSein":3707,"ĠSÃ¤u":3708,"tete":3709,"Ġbelie":3710,"Ġzueinander":3711,"ichtbar":3712,"etten":3713,"etenz":3714,"ierungs":3715,"Ã¶hn":3716,"ĠGren":3717,"ĠGleich":3718,"ĠAktivitÃ¤ten":3719,"ĠAssembl":3720,"ĠMus":3721,"ĠMachen":3722,"ĠMechan":3723,"ĠMeme":3724,"ĠMilie":3725,"ĠEss":3726,"ĠWeg":3727,"ĠKn":3728,"ĠKÃ¶pfen":3729,"ĠKrÃ¤fte":3730,"ĠKyberne":3731,"ĠKatastrop":3732,"legung":3733,"Ġflex":3734,"Ġfall":3735,"Ġfast":3736,"isation":3737,"ĠBeh":3738,"ĠBil":3739,"ĠBot":3740,"ĠBÃ¼ch":3741,"ĠBesitz":3742,"rag":3743,"radi":3744,"raucht":3745,"uskri":3746,"mme":3747,"Ġerf":3748,"Ġerkannt":3749,"Ġergibt":3750,"Ġging":3751,"Ġvoneinander":3752,"Ġwirkt":3753,"Ġverd":3754,"Ġvermitt":3755,"Ġangew":3756,"Ġannehmen":3757,"Ġanalog":3758,"Ġanzusehen":3759,"olt":3760,"igur":3761,"sequ":3762,"ĠDreie":3763,"dete":3764,"ĠgeprÃ¤":3765,"prÃ¼":3766,"ellos":3767,"ĠPhilosop":3768,"ĠPosition":3769,"ĠPunkt":3770,"ĠPapier":3771,"Ġaufs":3772,"Ġaufzu":3773,"ĠFeind":3774,"Ã¤nglich":3775,"ĠRob":3776,"ĠNacht":3777,"ĠNamen":3778,"ĠNeugier":3779,"ĠNoti":3780,"reg":3781,"rech":3782,"reffen":3783,"ĠVerf":3784,"ĠVerl":3785,"ĠVerein":3786,"ĠVerÃ¤nder":3787,"Ġoben":3788,"ĠTun":3789,"ĠTraum":3790,"ĠTrÃ¤ger":3791,"ĠBed":3792,"ĠBeob":3793,"ĠlÃ¤ch":3794,"auen":3795,"ĠUnen":3796,"tive":3797,"ĠErde":3798,"ĠErklÃ¤r":3799,"ĠErinnerungen":3800,"fferen":3801,"ĠLeib":3802,"heben":3803,"ĠIntegra":3804,"Ġentstand":3805,"Ġentgegen":3806,"ĠentÃ¤uÃŁ":3807,"ĠÃ¼bertragen":3808,"ĠOutput":3809,"Ġdemnach":3810,"ierende":3811,"Ġihres":3812,"Ġihrerseits":3813,"Ġimplemen":3814,"ĠReg":3815,"ĠReich":3816,"ĠReaktion":3817,"Ġstetig":3818,"mente":3819,"ruh":3820,"ĠMapping":3821,"zugehen":3822,"Ġsogar":3823,"Ġsogenann":3824,"Ġvorgenommen":3825,"Ġselbstver":3826,"ungsm":3827,"utlich":3828,"ersÃ¶n":3829,"erspe":3830,"uÃŁten":3831,"alektik":3832,"Ġmehreren":3833,"ĠSchw":3834,"ĠSchach":3835,"ĠSchreib":3836,"ĠSchwier":3837,"ĠtÃ¶":3838,"Ġtrotz":3839,"Ġrealen":3840,"ĠStÃ¶r":3841,"ĠStelle":3842,"Ġdarstellen":3843,"ĠUnver":3844,"opp":3845,"oper":3846,"ĠSpezi":3847,"ĠSpiegel":3848,"Ġev":3849,"ame":3850,"ĠAnstren":3851,"Ġpass":3852,"blei":3853,"Inform":3854,"hÃ¤ngt":3855,"Ġmanif":3856,"Ġkonkrete":3857,"Ġkontempl":3858,"ĠKontr":3859,"ĠabhÃ¤ngig":3860,"Ġabsol":3861,"Ã¼ss":3862,"Ġhinter":3863,"eiche":3864,"dimension":3865,"gorhyt":3866,"zies":3867,"liegt":3868,"ĠEinfl":3869,"zeugen":3870,"stellationen":3871,"Ã¤che":3872,"Ġheran":3873,"Ġgesprochen":3874,"ĠrÃ¼":3875,"gebunden":3876,"geboren":3877,"ĠSprachen":3878,"werkzeuge":3879,"Ġmenschlicher":3880,"ĠZeitbewuÃŁtsein":3881,"Ġeinzigen":3882,"etztlich":3883,"izitÃ¤t":3884,"Ġgener":3885,"Ġgenetisch":3886,"Ġformulieren":3887,"ĠEnergie":3888,"Ġgleicher":3889,"ĠGesprÃ¤ch":3890,"ĠNetze":3891,"ĠNetzen":3892,"ĠInteraktion":3893,"ichtigkeit":3894,"wendung":3895,"wendig":3896,"schiedenheit":3897,"Ġprogramm":3898,"ĠfÃ¼hlen":3899,"Ġvoller":3900,"Ġbeginnt":3901,"plan":3902,"ĠÃľberleben":3903,"rieb":3904,"reibungsk":3905,"Ġinnere":3906,"Ġintern":3907,"ĠWirkung":3908,"Ġmateri":3909,"obiolog":3910,"Ġverliert":3911,"Ġverlieren":3912,"Ġverloren":3913,"Ġverlangt":3914,"arbeiten":3915,"folger":3916,"Ġsinnlos":3917,"ĠbeschrÃ¤n":3918,"Ġzeitlichen":3919,"ĠProgramme":3920,"ĠProgramms":3921,"ĠProgrammier":3922,"apsen":3923,"lÃ¶sung":3924,"Ġgering":3925,"ĠbewuÃŁt":3926,"ĠAbgrenzung":3927,"Alle":3928,"ifik":3929,"volle":3930,"ĠHeraus":3931,"zusetzen":3932,"ĠSozi":3933,"Ã¤ufe":3934,"ĠDifferenz":3935,"ĠDialog":3936,"Beim":3937,"Beispielsweise":3938,"ĠBeschreibungen":3939,"eutung":3940,"Ġsolches":3941,"Ġartik":3942,"gabe":3943,"treten":3944,"Ġzweif":3945,"ĠbloÃŁe":3946,"forderungen":3947,"ĠReihe":3948,"Ġabstrah":3949,"ĠmÃ¶gen":3950,"Programm":3951,"lÃ¤ss":3952,"Ġinhaltlichen":3953,"Ġobjektiven":3954,"bringen":3955,"Ġsymbolische":3956,"gehend":3957,"ĠGeburt":3958,"ĠMaterialisierung":3959,"ĠBereiche":3960,"ĠJahren":3961,"faÃŁt":3962,"offe":3963,"Ġsubjektiv":3964,"Ġerweitert":3965,"Ġbedarf":3966,"Ġkonstruiert":3967,"Demnach":3968,"fÃ¤llig":3969,"ĠAgent":3970,"nahmen":3971,"ĠWerte":3972,"prozess":3973,"ĠTeste":3974,"Ġunterschiedliche":3975,"Jedes":3976,"Ġfunktioniert":3977,"Ã¶rpert":3978,"Ġkonnten":3979,"ĠÃĦsthetischen":3980,"ĠÃĦsthetik":3981,"ifiziert":3982,"Ġnotwendig":3983,"Ġgeistigen":3984,"ĠDarstell":3985,"ĠabendlÃ¤ndischen":3986,"ayes":3987,"kannte":3988,"zÃ¼glich":3989,"Ã¼tzt":3990,"Ġkulturellen":3991,"atorische":3992,"Ġgetroffen":3993,"ĠÃ¤ndert":3994,"ĠGelingen":3995,"ĠMonaten":3996,"ĠPotenti":3997,"ĠPotenzi":3998,"ĠVersuch":3999,"Ġberuht":4000,"Ġwissenschaftliche":4001,"Ġwissenschaftlichen":4002,"Ġirgendetwas":4003,"fangs":4004,"ĠQualitÃ¤t":4005,"ĠSynchron":4006,"ĠSynapsen":4007,"ĠKants":4008,"ĠBegrÃ¼n":4009,"ĠErgebnis":4010,"Ġreflektierende":4011,"wÃ¤rts":4012,"ĠArealen":4013,"ĠverstÃ¤rken":4014,"ĠZeugnisse":4015,"Ġlogischen":4016,"sprozesse":4017,"ĠBetrachtung":4018,"ibel":4019,"ĠKorrelationen":4020,"ĠgrundsÃ¤tz":4021,"Ġbeobachten":4022,"ĠErscheinungen":4023,"ĠErwartungen":4024,"ĠAussage":4025,"Ġidentisch":4026,"Ġeingebettet":4027,"ĠSubst":4028,"ĠSynthese":4029,"ĠBenutzer":4030,"Ġerwarten":4031,"ĠPolitik":4032,"ĠVerbesser":4033,"Ġsteuern":4034,"ĠSpezies":4035,"Ġgespeichert":4036,"ĠÃĦuÃŁ":4037,"Ġeinzelner":4038,"ĠÃľbertreibungsk":4039,"Formale":4040,"ĠprÃ¤sentiert":4041,"ĠSachver":4042,"ĠKreativitÃ¤t":4043,"Ġerlaubt":4044,"Ġverabscheute":4045,"Ġverwendet":4046,"ĠHegel":4047,"ĠHilfe":4048,"Ġimpliziert":4049,"ribu":4050,"ĠbeschÃ¤ftigt":4051,"Ġdiskreten":4052,"ĠKoordination":4053,"sicherheit":4054,"ĠnÃ¶tig":4055,"ĠnaturgemÃ¤ÃŁ":4056,"Ġneurobiolog":4057,"ĠManuskri":4058,"ĠDoktor":4059,"ĠDelfin":4060,"ĠHardware":4061,"Ġschnell":4062,"ĠStatus":4063,"ĠplÃ¶tzlich":4064,"Ġkontinuier":4065,"ĠChaos":4066,"Ġbewirken":4067,"Ġangepasst":4068,"ristoteles":4069,"wurf":4070,"Ġdistribu":4071,"ĠwomÃ¶glich":4072,"Ġbelieb":4073,"ĠGrenze":4074,"ĠEssay":4075,"ĠDreieck":4076,"ĠgeprÃ¤gt":4077,"ĠPhilosophen":4078,"ĠRobo":4079,"ĠVerÃ¤nderung":4080,"ĠIntegration":4081,"erspektive":4082,"Ġmanifest":4083,".)":4084,"Bl":4085,"Besonder":4086,"Computer":4087,"Descartes":4088,"EW":4089,"Gen":4090,"Iden":4091,"Intelligenz":4092,"Kant":4093,"Meist":4094,"Netz":4095,"SE":4096,"ST":4097,"System":4098,"Sinn":4099,"Sim":4100,"Ur":4101,"Viele":4102,"Wo":4103,"Zur":4104,"ZunÃ¤chst":4105,"aun":4106,"besch":4107,"dik":4108,"dingt":4109,"etische":4110,"fse":4111,"fik":4112,"figur":4113,"gg":4114,"gn":4115,"go":4116,"hes":4117,"hor":4118,"hle":4119,"ic":4120,"iver":4121,"jen":4122,"kal":4123,"krei":4124,"kunst":4125,"ketten":4126,"leit":4127,"lers":4128,"leiten":4129,"me":4130,"mer":4131,"machen":4132,"mÃ¼ndigkeit":4133,"ning":4134,"our":4135,"otionen":4136,"pte":4137,"passen":4138,"rich":4139,"ret":4140,"sy":4141,"sur":4142,"som":4143,"sbe":4144,"seits":4145,"sraum":4146,"systeme":4147,"thr":4148,"tschaft":4149,"uen":4150,"vÃ¶":4151,"wÃ¼r":4152,"will":4153,"wechsel":4154,"wachsen":4155,"ykl":4156,"zei":4157,"zel":4158,"zis":4159,"Ġ*":4160,"Ġ=":4161,"Ġten":4162,"Ġorganis":4163,"enten":4164,"enschen":4165,"enntnis":4166,"erie":4167,"ertig":4168,"erdings":4169,"che":4170,"chmal":4171,"Ġdun":4172,"Ġdan":4173,"inie":4174,"iet":4175,"iesen":4176,"ieben":4177,"ietet":4178,"strÃ¤ger":4179,"stÃ¼cke":4180,"icheren":4181,"Ġseh":4182,"Ġsens":4183,"Ġsetzen":4184,"Ġaktiven":4185,"eite":4186,"onnen":4187,"Ġwod":4188,"Ġweg":4189,"Ġwachsen":4190,"Ġunsch":4191,"Ġunre":4192,"Ġunab":4193,"Ġunivers":4194,"ĠunzusammenhÃ¤n":4195,"Ã¤re":4196,"Ã¤he":4197,"Ã¤qu":4198,"Ġign":4199,"ande":4200,"anken":4201,"Ġvage":4202,"ase":4203,"Ġeins":4204,"ĠeinfÃ¼":4205,"Ġeinige":4206,"Ġziel":4207,"Ġzers":4208,"Ġmache":4209,"Ã¼m":4210,"Ã¼ben":4211,"Ã¼ll":4212,"Ã¼cken":4213,"Ã¼hlen":4214,"gestellt":4215,"ure":4216,"alit":4217,"ori":4218,"orten":4219,"orien":4220,"orph":4221,"ĠSuch":4222,"ĠSeiten":4223,"ĠSammlung":4224,"ĠSeite":4225,"testen":4226,"lichung":4227,"lichste":4228,"Ġaugenblick":4229,"Ġkorr":4230,"Ġkennt":4231,"Ġkehrt":4232,"ĠkohÃ¤ren":4233,"Ġzuzu":4234,"ĠzugÃ¤n":4235,"Ġzugesprochen":4236,"arten":4237,"arbei":4238,"arning":4239,"ierter":4240,"Ã¶s":4241,"Ã¶nen":4242,"ĠGrÃ¶":4243,"ĠGrupp":4244,"ĠGott":4245,"ĠAbl":4246,"ĠAktu":4247,"ĠAdr":4248,"ĠML":4249,"ĠMit":4250,"ĠMar":4251,"ĠMind":4252,"ĠMann":4253,"ĠMund":4254,"ĠMÃ¼ndigkeit":4255,"ĠMolek":4256,"ĠhÃ¤lt":4257,"Ġhalten":4258,"ĠEv":4259,"ĠWenn":4260,"ĠWasser":4261,"ĠKombin":4262,"ĠKenntnis":4263,"legt":4264,"legungen":4265,"Ġfe":4266,"Ġfreie":4267,"Ġfertig":4268,"isieren":4269,"isod":4270,"teren":4271,"terie":4272,"raschen":4273,"ragt":4274,"Ġern":4275,"Ġerken":4276,"Ġerfassen":4277,"Ġersetzt":4278,"Ġerfasst":4279,"ĠerzÃ¤hl":4280,"Ġerreicht":4281,"ĠermÃ¶glichen":4282,"Ġgingen":4283,"Ġgreift":4284,"bereiche":4285,"indest":4286,"Ġwirken":4287,"Ġvergleich":4288,"Ġverhin":4289,"Ġverfl":4290,"Ġverschl":4291,"Ġverantwort":4292,"Ġvergessen":4293,"atoren":4294,"atour":4295,"Ġanthr":4296,"olfse":4297,"ĠVir":4298,"ĠVoll":4299,"ĠValÃ©ry":4300,"ĠDe":4301,"ĠDer":4302,"ĠDun":4303,"ĠDigit":4304,"ĠDrang":4305,"defin":4306,"ĠIr":4307,"Ġgehe":4308,"Ġgegeben":4309,"entalen":4310,"ellem":4311,"ĠPo":4312,"ĠPu":4313,"ĠPop":4314,"ĠPrÃ¤":4315,"ĠPhys":4316,"Ġaufgeb":4317,"Ġauffassen":4318,"Ġaufbau":4319,"ĠFe":4320,"ĠFin":4321,"ĠFehl":4322,"ĠFÃ¼hlen":4323,"achtet":4324,"umpf":4325,"umente":4326,"ĠRo":4327,"ĠRÃ¤t":4328,"ĠRoman":4329,"Ã¼rf":4330,"Ã¼rfen":4331,"Ġunsicheren":4332,"ĠNorm":4333,"ĠNutzen":4334,"ĠNotwend":4335,"ĠNÃ¼tz":4336,"ĠNeben":4337,"rebt":4338,"recken":4339,"ĠVerd":4340,"ĠVerm":4341,"ĠVerfÃ¼":4342,"ĠVerwendung":4343,"ĠZett":4344,"ĠZentr":4345,"ĠZweif":4346,"ĠZersetzung":4347,"ĠTieren":4348,"ĠTop":4349,"ĠTaten":4350,"ĠTerm":4351,"ĠTyp":4352,"ĠTenden":4353,"urcht":4354,"Ġausgel":4355,"ĠausÃ¼ben":4356,"Ġwert":4357,"Ġlas":4358,"Ġlos":4359,"Ġletztlich":4360,"euten":4361,"ĠErzeug":4362,"ĠErleb":4363,"ĠErwachsen":4364,"ffe":4365,"ĠHÃ¶":4366,"ĠLesen":4367,"ĠLauf":4368,"ĠLeute":4369,"ĠLoop":4370,"etzmÃ¤ÃŁ":4371,"Ã¶nnen":4372,"ĠIngen":4373,"ĠInnen":4374,"ĠInput":4375,"ĠIntention":4376,"Ġenthalten":4377,"reif":4378,"reize":4379,"reitet":4380,"ĠÃ¼bersch":4381,"ĠÃ¼berprÃ¼":4382,"ĠÃ¼berraschen":4383,"ĠOnt":4384,"ierend":4385,"ierens":4386,"eilen":4387,"ĠReden":4388,"ĠRechn":4389,"ĠRechnen":4390,"ĠReferenz":4391,"ĠReduktion":4392,"Ġstar":4393,"ĠstÃ¤r":4394,"ĠstÃ¤ndig":4395,"Ġstud":4396,"Ġscheinen":4397,"ĠMaterie":4398,"haltet":4399,"zustÃ¤nde":4400,"odie":4401,"eche":4402,"echung":4403,"Ġvornehm":4404,"ĠvorwÃ¤rts":4405,"Ġselbstre":4406,"ĠKunstwerken":4407,"Ġeinerseits":4408,"ungsweise":4409,"stehe":4410,"endet":4411,"Ġkeinem":4412,"ystems":4413,"ull":4414,"ulationen":4415,"ulierung":4416,"ĠSchÃ¶n":4417,"ĠSchalt":4418,"Ġtheor":4419,"Ġtyp":4420,"rennen":4421,"rennt":4422,"tischer":4423,"tisches":4424,"Ġreale":4425,"Ġrezi":4426,"Ġrekurs":4427,"Ġdarunter":4428,"ĠUnsicherheit":4429,"opo":4430,"ĠSpeich":4431,"eigenschaften":4432,"ĠAnp":4433,"ĠAnder":4434,"ĠAnsichten":4435,"ĠAnnahme":4436,"ĠAnzahl":4437,"ĠAnnahmen":4438,"Ġunters":4439,"ĠpersÃ¶n":4440,"ĠÃ¤l":4441,"Ã¶rt":4442,"fÃ¼hl":4443,"agin":4444,"ikro":4445,"Ġkontr":4446,"ĠKonver":4447,"Ġabge":4448,"Ġabzu":4449,"Ġabgesch":4450,"Ġabgeschlossen":4451,"Ġabgrenz":4452,"Ġabbilden":4453,"icke":4454,"Ġetabl":4455,"sprechend":4456,"sprechung":4457,"ĠFormwerdung":4458,"itts":4459,"ĠBewert":4460,"schiede":4461,"ĠNaturges":4462,"liebe":4463,"liederung":4464,"vermÃ¶gen":4465,"ĠEinsch":4466,"ĠEinsicht":4467,"Ġzumindest":4468,"ĠGegenstÃ¤nden":4469,"teilt":4470,"Ġrel":4471,"Ġreine":4472,"Ġries":4473,"Ġrelev":4474,"Ġtechnolog":4475,"ĠAusbildung":4476,"Ġexpliz":4477,"Ġexakt":4478,"gesp":4479,"Ġwarum":4480,"allu":4481,"Ġmenschlich":4482,"ologische":4483,"ĠZeitraum":4484,"gorithm":4485,"Ġjem":4486,"ĠSubjekten":4487,"Ġgenannt":4488,"ĠgenieÃŁen":4489,"ĠgenÃ¼gt":4490,"Ġformaler":4491,"ĠAltern":4492,"ĠEntitÃ¤t":4493,"werten":4494,"Ã¤rke":4495,"Ã¤rfe":4496,"grad":4497,"pfer":4498,"omplexe":4499,"Ġgegenseitig":4500,"ĠGesetzen":4501,"ĠGesetzmÃ¤ÃŁ":4502,"ĠInteressen":4503,"geschichte":4504,"hafte":4505,"vorgang":4506,"Ġbereit":4507,"Ġberechnet":4508,"Unter":4509,"Ġnied":4510,"Ġkleinen":4511,"Ġprim":4512,"ĠErkennen":4513,"Ġbegann":4514,"ĠbegrÃ¼n":4515,"rÃ¤gt":4516,"eignen":4517,"ĠAufbau":4518,"ĠgemÃ¤ÃŁ":4519,"zeichnen":4520,"Ġwahrnehm":4521,"ielles":4522,"ĠArbeits":4523,"ĠWirkungen":4524,"atÃ¼rlich":4525,"Ġverlassen":4526,"laufen":4527,"Ġdenkenden":4528,"Ġsinnlich":4529,"Ġsinnlichen":4530,"Ġbeschreibt":4531,"Ġgelingt":4532,"ĠTeilen":4533,"sichtslos":4534,"ĠhÃ¶ren":4535,"ĠIdeal":4536,"lÃ¶schung":4537,"gehenden":4538,"Ġversuchen":4539,"ĠUnterschiede":4540,"ettung":4541,"ĠExper":4542,"ĠUrs":4543,"Ġgeschehen":4544,"ĠZuhÃ¶r":4545,"Ġmental":4546,"ituation":4547,"ĠEntwickler":4548,"ĠEntwicklungs":4549,"ĠEigenschaft":4550,"Ġverwirk":4551,"Ġverwenden":4552,"ĠWissenschaftler":4553,"ĠAbstraktionen":4554,"skon":4555,"sofern":4556,"Ġbasale":4557,"ĠHerstellen":4558,"ĠDenkmaschine":4559,"ĠDenkwerkzeuge":4560,"schauen":4561,"ĠIdentif":4562,"ĠKunstwerke":4563,"Ġbesondere":4564,"Ġbesonderer":4565,"aktisch":4566,"ichtete":4567,"ĠDifferen":4568,"ĠDialektik":4569,"Ġgestaltet":4570,"Ġentsprechend":4571,"ĠNeuronenver":4572,"Ġsollen":4573,"Dennoch":4574,"flÃ¤che":4575,"Ġwirkliche":4576,"Ġwirksam":4577,"ĠFragen":4578,"zeption":4579,"DaÃŁ":4580,"Daher":4581,"Davon":4582,"odernen":4583,"Ġspreche":4584,"Ġwichtigsten":4585,"ĠMeta":4586,"ĠMetap":4587,"ĠMetare":4588,"ĠEmp":4589,"ĠEmotionen":4590,"Ġzweite":4591,"Ġzweiwer":4592,"forschung":4593,"Ġfolglich":4594,"stitution":4595,"ĠMerkmals":4596,"Ġstattfinden":4597,"ĠÃ¤sthetisches":4598,"Ġinhaltlich":4599,"Ġbegriffliche":4600,"reichend":4601,"ĠtatsÃ¤chlichen":4602,"ĠZusammenhanglosigkeit":4603,"bringt":4604,"ĠwÃ¼rden":4605,"ĠverfÃ¼gt":4606,"Ġdennoch":4607,"Ġallgemeiner":4608,"Ġhervorzu":4609,"Ġhervorbringt":4610,"ĠNetzwerks":4611,"ĠPersonen":4612,"Ġbedingt":4613,"Ġkonkret":4614,"Ġsprachlichen":4615,"ĠverkÃ¶rpert":4616,"ĠSpielraum":4617,"ĠAutonom":4618,"ĠText":4619,"ĠEreignissen":4620,"Ġteilweise":4621,"Allerdings":4622,"Jede":4623,"Kunstwerke":4624,"Ġrationale":4625,"Ġrationalen":4626,"Ġdisziplin":4627,"Ġunbedingt":4628,"ĠGroÃŁteil":4629,"Ġfunktionieren":4630,"ĠBesondere":4631,"ĠBesonderheit":4632,"ĠPartik":4633,"Ġbefindet":4634,"ĠVerhÃ¤ltnisses":4635,"Ġsoziale":4636,"ĠÃĦsthetische":4637,"Ġjener":4638,"Ġnah":4639,"Ġnotwendigen":4640,"Ġbringt":4641,"ĠkÃ¶rperlichen":4642,"ĠDiskurs":4643,"Ġoperiert":4644,"ĠMaÃŁe":4645,"ĠKonzepte":4646,"ĠKonzepten":4647,"gelegen":4648,"maschinen":4649,"kannten":4650,"Ġdigitalen":4651,"inuitÃ¤t":4652,"Ġseitens":4653,"ĠSimulation":4654,"Ġkulturell":4655,"ĠAkteuren":4656,"ĠfrÃ¼h":4657,"Ġgetan":4658,"ĠNarrativ":4659,"ĠNachdenken":4660,"Ġschlecht":4661,"ĠVerschaltung":4662,"Ġidealen":4663,"ĠMonsieur":4664,"ĠRhythmen":4665,"Ġvorhandene":4666,"Ġvorhandenen":4667,"ĠVorhersagen":4668,"ĠGesamtheit":4669,"Ġberuhen":4670,"Ġinterpretiert":4671,"Daraus":4672,"Sprache":4673,"worten":4674,"worfen":4675,"zusammenhang":4676,"zentrum":4677,"tisierung":4678,"ortex":4679,"ĠbenÃ¶":4680,"ĠKompetenz":4681,"Ġerweist":4682,"produkt":4683,"ĠResult":4684,"ĠNeues":4685,"ĠErgebnisse":4686,"menschlichen":4687,"Ġphilosophische":4688,"Ġmaschinellen":4689,"ĠZusammenhÃ¤ngen":4690,"ĠEmpfindungen":4691,"Ġeng":4692,"Ġquasi":4693,"Ġqualit":4694,"Ġaktuelle":4695,"ĠAreale":4696,"Ġanzupassen":4697,"ĠZahlen":4698,"Ġlogische":4699,"Ġlokale":4700,"Ġentscheidenden":4701,"ĠElementen":4702,"Technische":4703,"Ġ20":4704,"Ġeindeutig":4705,"Ġeindeutigen":4706,"Ġmathematischen":4707,"Ġgrundle":4708,"Ġstabilen":4709,"Ġtransklass":4710,"Ġpraktischen":4711,"ĠhÃ¶chsten":4712,"Ġsynthe":4713,"Ġsyntaktisch":4714,"Ġunbewusste":4715,"Ġbeinhaltet":4716,"Ã¶pfe":4717,"bedingungen":4718,"ĠÃ¼bertreibt":4719,"ĠAnsÃ¤tze":4720,"ĠEntstehung":4721,"ĠArtefakte":4722,"ĠCodierung":4723,"Ġresul":4724,"Ġklassischen":4725,"ĠÃľberzeugung":4726,"ĠverselbstÃ¤ndigt":4727,"ĠFragment":4728,"ĠSchlÃ¼sse":4729,"ĠSchlÃ¼ssel":4730,"ĠAutomat":4731,"ĠNarrationen":4732,"Ġnarrative":4733,"Neuronen":4734,"Ġunendlich":4735,"Ġkombinatorische":4736,"ĠGrÃ¼nde":4737,"Ġheutigen":4738,"Ġfehlt":4739,"Ġerinnern":4740,"ĠTages":4741,"ĠThematik":4742,"ausende":4743,"ĠErweiterungen":4744,"ĠLÃ¶sung":4745,"ĠInstrumente":4746,"echseln":4747,"ĠUniversum":4748,"Ġwiederholt":4749,"verarbeitung":4750,"Ġexterne":4751,"Ġproblem":4752,"ĠfÃ¼hlt":4753,"Ġbegrenzt":4754,"Ġhierarchisch":4755,"Ġgeschlossenen":4756,"ĠSchlussfolger":4757,"Ġhistorisch":4758,"ĠHypothese":4759,"Ebenso":4760,"richtungen":4761,"Ġelement":4762,"eimnis":4763,"alkÃ¼le":4764,"Ġinfame":4765,"ĠBelege":4766,"Ġmittels":4767,"ĠTitel":4768,"Ġlimbische":4769,"Ġpositives":4770,"ĠLevel":4771,"skopischen":4772,"ĠHirnarealen":4773,"ĠKindesalter":4774,"ĠVerknÃ¼pfungen":4775,"Ġsubsum":4776,"ĠTools":4777,"Vermutlich":4778,"braucher":4779,"gÃ¼ltig":4780,"ĠÃ¶ffent":4781,"ĠMusik":4782,"ĠMechanismus":4783,"ĠMilieu":4784,"ĠKybernetik":4785,"ĠKatastrophe":4786,"radition":4787,"ĠNotiz":4788,"ĠVerfasser":4789,"ĠLeibniz":4790,"ĠReichweite":4791,"bleibt":4792,"ĠKontrolle":4793,"ĠEinfluss":4794,"ĠgleichermaÃŁen":4795,"Ġartikuliert":4796,"Ġzweifellos":4797,"ĠVerbesserung":4798,"ĠÃľbertreibungskunst":4799,"ĠSachverhalt":4800,"Ġbeliebige":4801,"Ġmanifestiert":4802,"Besonders":4803,"Simondon":4804,"Urteil":4805,"sych":4806,"Ġdanach":4807,"Ġwodurch":4808,"Ġunreflek":4809,"Ġignor":4810,"ĠzugÃ¤nglich":4811,"arbeiteten":4812,"olfsegg":4813,"Ġaufbauen":4814,"ĠNotwendigkeit":4815,"ĠNÃ¼tzlichkeit":4816,"ĠErwachsenen":4817,"ĠstÃ¤rk":4818,"Ġkontroll":4819,"ĠKonvergenz":4820,"Ġexplizit":4821,"ĠGesetzmÃ¤ÃŁigkeiten":4822,"ĠDifferenzen":4823,"ĠSchlussfolgerungen":4824,"):":4825,"-,":4826,".,":4827,"Bubner":4828,"BEW":4829,"Cull":4830,"Di":4831,"Dort":4832,"Fol":4833,"Ge":4834,"Gem":4835,"Hinge":4836,"Heterarchien":4837,"IN":4838,"Jetzt":4839,"Kein":4840,"Kon":4841,"Logik":4842,"Latour":4843,"Me":4844,"Mir":4845,"Mod":4846,"MÃ¶glich":4847,"Meme":4848,"Nar":4849,"Noch":4850,"Netze":4851,"NatÃ¼rlich":4852,"Sein":4853,"Sind":4854,"Sol":4855,"Sondern":4856,"Sob":4857,"Seman":4858,"These":4859,"Wer":4860,"Wahr":4861,"Werk":4862,"Welch":4863,"Weiter":4864,"Ziel":4865,"Zwei":4866,"Zwischen":4867,"],":4868,"af":4869,"ati":4870,"aur":4871,"aar":4872,"aden":4873,"aÃŁ":4874,"abe":4875,"ahe":4876,"ahmen":4877,"afft":4878,"bb":4879,"bit":4880,"besonder":4881,"bÃ¼ch":4882,"brigen":4883,"bettung":4884,"ces":4885,"cCull":4886,"dar":4887,"dlichkeit":4888,"deten":4889,"dachte":4890,"drÃ¼cken":4891,"ege":4892,"eum":4893,"edi":4894,"eca":4895,"gum":4896,"geren":4897,"gungs":4898,"grÃ¼n":4899,"gument":4900,"hie":4901,"haus":4902,"hesen":4903,"hant":4904,"hÃ¼ll":4905,"ian":4906,"iden":4907,"iken":4908,"ibl":4909,"icken":4910,"ker":4911,"kÃ¼r":4912,"kombin":4913,"kÃ¼nstler":4914,"kohÃ¤renz":4915,"kopp":4916,"les":4917,"lang":4918,"lrich":4919,"mor":4920,"met":4921,"mord":4922,"nÃ¤h":4923,"nern":4924,"nive":4925,"otion":4926,"ohn":4927,"por":4928,"pul":4929,"pposition":4930,"perspektive":4931,"reit":4932,"rum":4933,"rieren":4934,"rische":4935,"reten":4936,"rolle":4937,"ress":4938,"sf":4939,"sz":4940,"son":4941,"sichtig":4942,"samen":4943,"swert":4944,"tl":4945,"tu":4946,"telligen":4947,"treiben":4948,"trieben":4949,"tÃ¤u":4950,"teile":4951,"uft":4952,"ualitÃ¤t":4953,"uktu":4954,"wahl":4955,"ys":4956,"zung":4957,"zicht":4958,"zent":4959,"zwei":4960,"zweck":4961,"Ġ9":4962,"ĠÃ¶":4963,"Ġele":4964,"Ġcod":4965,"eneca":4966,"eri":4967,"ero":4968,"eres":4969,"erben":4970,"erkt":4971,"ergenz":4972,"chten":4973,"Ġdr":4974,"Ġdra":4975,"Ġdul":4976,"Ġdistanz":4977,"ins":4978,"intelligen":4979,"unabhÃ¤ngig":4980,"unruh":4981,"iese":4982,"ietz":4983,"stun":4984,"steil":4985,"stant":4986,"stÃ¤tigkeit":4987,"stausch":4988,"ichtigen":4989,"Ġsor":4990,"Ġselt":4991,"Ġsystem":4992,"Ġsign":4993,"Ġsucht":4994,"Ġsamm":4995,"Ġsynchron":4996,"Ġsichtbar":4997,"Ġaktive":4998,"eitet":4999,"eima":5000,"einem":5001,"einbar":5002,"einkind":5003,"ondenz":5004,"Ġweist":5005,"Ġwichtige":5006,"Ġwendet":5007,"schem":5008,"schlieÃŁ":5009,"schlieÃŁen":5010,"schritte":5011,"schÃ¤rfe":5012,"Ġuner":5013,"Ġunten":5014,"Ġunaus":5015,"Ġunkl":5016,"Ġungew":5017,"elfen":5018,"elodie":5019,"til":5020,"tiken":5021,"tizip":5022,"Ã¤d":5023,"Ã¤te":5024,"Ã¤sthe":5025,"Ã¤ÃŁen":5026,"Ã¤tigen":5027,"ano":5028,"antieren":5029,"anzip":5030,"anschauung":5031,"aszin":5032,"Ġnir":5033,"Ġnum":5034,"Ġneg":5035,"Ġneigt":5036,"ĠnÃ¼tz":5037,"Ġnennen":5038,"Ġeinheit":5039,"ĠeinprÃ¤":5040,"Ġeiniger":5041,"Ġeinwirken":5042,"Ġeingerichtet":5043,"Ġzei":5044,"ĠzÃ¤hl":5045,"Ġmachte":5046,"Ġminde":5047,"Ġmodell":5048,"ĠmiÃŁ":5049,"Ġmerken":5050,"Ġmenschen":5051,"Ġmikro":5052,"Ġmodernen":5053,"Ã¼h":5054,"Ã¼ge":5055,"gestell":5056,"alogen":5057,"also":5058,"gener":5059,"ĠSens":5060,"ĠSinger":5061,"ĠSaur":5062,"teste":5063,"Ġbraucht":5064,"Ġinnen":5065,"Ġintention":5066,"Ġinsofern":5067,"irnen":5068,"Ġkenn":5069,"Ġkod":5070,"Ġkop":5071,"Ġkaus":5072,"ĠkÃ¤m":5073,"Ġkartes":5074,"Ġkamen":5075,"Ġkurz":5076,"emischen":5077,"emische":5078,"ital":5079,"itation":5080,"Ġzust":5081,"Ġzuerst":5082,"Ġzufolge":5083,"eitÃ¤t":5084,"ichts":5085,"arle":5086,"aritÃ¤t":5087,"artigen":5088,"artige":5089,"eth":5090,"ette":5091,"ierbare":5092,"Ã¶sen":5093,"ĠGang":5094,"ĠGabe":5095,"ĠAck":5096,"ĠAusst":5097,"ĠAssozi":5098,"ĠAristoteles":5099,"ĠMal":5100,"ĠMut":5101,"ĠMale":5102,"ĠMaler":5103,"ĠMemen":5104,"ĠMcCull":5105,"ĠMelodie":5106,"Ġalgorithm":5107,"Ġhundert":5108,"Ġhelfen":5109,"Ġhantieren":5110,"ĠEp":5111,"ĠWÃ¼n":5112,"ĠWoll":5113,"ĠWill":5114,"ĠWichtigkeit":5115,"ĠWorten":5116,"ĠWolfsegg":5117,"ĠWege":5118,"ĠKod":5119,"ĠKÃ¶nnen":5120,"tende":5121,"ÃŁe":5122,"ÃŁten":5123,"Ġfl":5124,"ĠflieÃŁen":5125,"Ġfeind":5126,"Ġfix":5127,"Ġfaszin":5128,"senz":5129,"ismen":5130,"ehn":5131,"ĠBit":5132,"ĠBra":5133,"ĠBau":5134,"ĠBrie":5135,"ĠBindungen":5136,"ĠBruch":5137,"ĠBubner":5138,"ĠBayes":5139,"ters":5140,"Ġereignet":5141,"ĠerÃ¶ff":5142,"Ġerreichen":5143,"Ġerfordert":5144,"Ġgl":5145,"Ġgra":5146,"ĠgÃ¤n":5147,"Ġgrenzen":5148,"Ġgute":5149,"ĠgÃ¤be":5150,"berflÃ¤che":5151,"indungs":5152,"Ġverf":5153,"Ġversen":5154,"Ġverhalten":5155,"Ġverstand":5156,"Ġverbind":5157,"Ġverfol":5158,"ĠverhÃ¤lt":5159,"ĠverfÃ¤l":5160,"Ġverank":5161,"Ġverstehe":5162,"atmen":5163,"athie":5164,"Ġanerk":5165,"Ġanges":5166,"Ġanger":5167,"Ġangem":5168,"Ġangesehen":5169,"Ġansprechen":5170,"Ġansehen":5171,"Ġanwenden":5172,"Ġangeboren":5173,"Ġanfangs":5174,"igung":5175,"sebene":5176,"ĠVekt":5177,"ĠVater":5178,"ĠDa":5179,"ĠDir":5180,"ĠDem":5181,"ĠDing":5182,"ĠDynam":5183,"ĠDescartes":5184,"ĠDichtung":5185,"ĠDeutung":5186,"ĠInt":5187,"ĠIntelligen":5188,"Ġgebild":5189,"Ġgezogen":5190,"Ġgetra":5191,"Ġgegangen":5192,"ĠgefÃ¤hr":5193,"Ġgeziel":5194,"entu":5195,"ellschaften":5196,"ĠPer":5197,"ĠPlÃ¶tz":5198,"ĠPitts":5199,"ĠPsych":5200,"Ġbekannt":5201,"Ġaufge":5202,"Ġaufgeh":5203,"Ġaufzunehmen":5204,"ĠFal":5205,"ĠFest":5206,"ĠFremd":5207,"ĠFÃ¼l":5208,"acher":5209,"achine":5210,"ĠRÃ¤um":5211,"Ã¼rde":5212,"ĠNe":5213,"ĠNeig":5214,"ĠNieder":5215,"omas":5216,"omatisch":5217,"Ġmitzu":5218,"Ġmitteil":5219,"rechn":5220,"regeln":5221,"ĠVerw":5222,"ĠVergleich":5223,"ĠVerfahren":5224,"ĠVergangen":5225,"ĠVerzweif":5226,"ĠVerschiedenheit":5227,"ĠZer":5228,"ĠZell":5229,"ĠZerst":5230,"ĠZitieren":5231,"ĠZykl":5232,"Ġoff":5233,"ĠTa":5234,"ĠTrans":5235,"ntÃ¤tigkeit":5236,"ĠBef":5237,"ĠBestand":5238,"ĠBegeg":5239,"ĠBezÃ¼ge":5240,"Ġdau":5241,"ĠauslÃ¶":5242,"ĠausfÃ¼hren":5243,"ĠausgelÃ¶":5244,"Ġausgesprochen":5245,"Ġausmacht":5246,"Ġlaut":5247,"aul":5248,"auer":5249,"auschen":5250,"auffassung":5251,"aucht":5252,"euch":5253,"euert":5254,"ĠUntÃ¤tigkeit":5255,"andum":5256,"andlung":5257,"ĠErfol":5258,"ĠErzÃ¤hl":5259,"iertheit":5260,"ĠHerk":5261,"ĠHofstadter":5262,"ĠHaltung":5263,"ĠHeterarchien":5264,"ĠHirnen":5265,"ĠLand":5266,"ĠLust":5267,"ĠLast":5268,"ĠLinie":5269,"heure":5270,"ckung":5271,"Ã¶nlichkeit":5272,"ehrte":5273,"ĠInhalten":5274,"ĠIndust":5275,"Ġentz":5276,"Ġentsetz":5277,"Ġentziehen":5278,"Ġentwerfen":5279,"ĠÃ¼bernehmen":5280,"ĠÃ¼berlassen":5281,"ĠÃ¼berlegen":5282,"ĠÃ¼berfordert":5283,"ĠOpfer":5284,"ĠOpposition":5285,"Ġimagin":5286,"ĠReflektieren":5287,"ĠReproduktion":5288,"ĠReaktionen":5289,"Ġalleine":5290,"rikt":5291,"riften":5292,"ĠMenge":5293,"Ġstrebt":5294,"Ġstrikt":5295,"Ġschl":5296,"Ġschritt":5297,"ĠschlieÃŁt":5298,"Ġzwang":5299,"ĠProje":5300,"ĠProgra":5301,"ĠMakro":5302,"ĠWeltbild":5303,"zuziehen":5304,"zuversetzen":5305,"echt":5306,"Ġdieselbe":5307,"Ġvorbestimm":5308,"Ġvorange":5309,"Ġvorliegt":5310,"Ġselbstbew":5311,"eisten":5312,"eistung":5313,"Ġums":5314,"Ġumso":5315,"Ġumfang":5316,"ĠKunstwelt":5317,"ĠKunstmenschen":5318,"ĠKunstkind":5319,"uting":5320,"ogra":5321,"ktivwechsel":5322,"tiges":5323,"Ġkeines":5324,"ular":5325,"ĠSchwar":5326,"ĠScheitern":5327,"ĠSchritte":5328,"Ġtra":5329,"Ġtot":5330,"Ġtritt":5331,"Ġtief":5332,"Ġtrennen":5333,"ĠtrÃ¤gt":5334,"Ġtreten":5335,"ĠStr":5336,"ĠStu":5337,"ĠStÃ¼ck":5338,"ĠStunden":5339,"ĠStabilitÃ¤t":5340,"ĠStÃ¤rke":5341,"isten":5342,"istische":5343,"Ġdargestellt":5344,"ĠUnbew":5345,"ĠUnsinn":5346,"ĠUnmÃ¼ndigkeit":5347,"ĠUnschÃ¤rfe":5348,"ĠMaschinerie":5349,"Ã¤higen":5350,"omputing":5351,"ĠSpekt":5352,"ĠSpuren":5353,"ĠSpontan":5354,"Ġevolution":5355,"Ġeffizi":5356,"barer":5357,"ĠAnalog":5358,"ĠAnforderungen":5359,"Ġuntersten":5360,"ĠunterdrÃ¼ckt":5361,"ernte":5362,"ernicke":5363,"Ġpassen":5364,"Ġphant":5365,"ĠSelbstÃ¤nd":5366,"angss":5367,"agert":5368,"hÃ¤nge":5369,"formation":5370,"formiert":5371,"Eines":5372,"Einerseits":5373,"Einzel":5374,"Ġkons":5375,"Ġkontext":5376,"Ġkonstant":5377,"ĠKonkrete":5378,"ĠKonstellationen":5379,"ĠeigenstÃ¤ndiges":5380,"ĠEntf":5381,"ĠEntstehen":5382,"ĠEntwurf":5383,"ĠEntsprechung":5384,"hmisierung":5385,"sprach":5386,"spunkt":5387,"sprache":5388,"Ġabgel":5389,"ĠabhÃ¤ngt":5390,"ĠâĢĵ,":5391,"ĠGehirna":5392,"ĠArgument":5393,"Ã¼sse":5394,"Ġhinzu":5395,"ĠHandwerk":5396,"sprÃ¼ch":5397,"ĠUmkehr":5398,"differenz":5399,"ĠFormulierung":5400,"ĠBewusst":5401,"ĠBewÃ¤l":5402,"ĠVorschein":5403,"ĠVorkomm":5404,"ĠVorschlag":5405,"Ġnachzu":5406,"Ġnachgesch":5407,"ĠCortex":5408,"ĠNaturwissenschaften":5409,"verhalten":5410,"verhÃ¤ltnis":5411,"ĠEinsichten":5412,"ĠEinrichtungen":5413,"ĠEinbettung":5414,"stellbar":5415,"alismen":5416,"alisierungen":5417,"ĠErfahrungs":5418,"Ã¤chtig":5419,"weltlichen":5420,"ĠGedankens":5421,"technischen":5422,"Ġherr":5423,"Ġherab":5424,"Ġherauf":5425,"Ġlearning":5426,"ĠGegenteil":5427,"Ġtechnischer":5428,"ĠAuswirkungen":5429,"serwart":5430,"Ġvieler":5431,"Ġextern":5432,"Ġspontan":5433,"gebracht":5434,"gesellschaft":5435,"gesetzte":5436,"Ġneues":5437,"allel":5438,"allgemein":5439,"Ġmenschliches":5440,"ĠZeiten":5441,"ĠZeitpunkt":5442,"gemachte":5443,"gemÃ¤ÃŁen":5444,"ĠModellen":5445,"scheidung":5446,"scheidungen":5447,"Ġjahr":5448,"stÃ¤ndige":5449,"Ġeinziges":5450,"ĠlieÃŁen":5451,"iziert":5452,"ĠSubjektiv":5453,"Ġformen":5454,"ionen":5455,"ĠEnd":5456,"ĠbloÃŁen":5457,"werte":5458,"pfehler":5459,"Ġgleichzei":5460,"Ġweitgehend":5461,"ĠgewÃ¶hn":5462,"ĠgegenwÃ¤r":5463,"Ġgegensei":5464,"ĠBegriffen":5465,"ĠGesp":5466,"ĠNetzes":5467,"ĠInterfa":5468,"ĠInteraktionen":5469,"geschehen":5470,"Ġbereitet":5471,"hyp":5472,"Ġseiend":5473,"ĠSinnlichkeit":5474,"ĠFunktions":5475,"ĠFunktionsl":5476,"atives":5477,"bindung":5478,"bindungen":5479,"Ġprob":5480,"ĠReprÃ¤sentandum":5481,"materi":5482,"ĠAlgorithmisierung":5483,"Ġvollziehen":5484,"Ġvollzogen":5485,"Ġbegreift":5486,"Ġbeginnen":5487,"fÃ¼hrte":5488,"eigern":5489,"Ġerstellen":5490,"haltung":5491,"ĠÃľbergang":5492,"ĠÃľberlegungen":5493,"riebene":5494,"Ġgemessen":5495,"iven":5496,"Ġwahre":5497,"Ġwahrnimmt":5498,"Ġwahrzunehmen":5499,"ĠArbeiten":5500,"ĠArbeitsteil":5501,"Ġmakro":5502,"Ġkomplexere":5503,"ĠAugen":5504,"Ġverlangen":5505,"ĠNerven":5506,"hÃ¤ngigen":5507,"Ġwobei":5508,"Ġwohin":5509,"Ġverschiedener":5510,"ĠGrundlagen":5511,"Ġgelangt":5512,"ĠPersÃ¶nlichkeit":5513,"ĠTeilha":5514,"Ã¶glichkeiten":5515,"hÃ¤ltnisse":5516,"Ġzeitleben":5517,"ĠzeitgemÃ¤ÃŁen":5518,"ĠzurÃ¼ckzu":5519,"apital":5520,"fallen":5521,"gehens":5522,"Ġentwickelten":5523,"flexive":5524,"ĠExtende":5525,"rationen":5526,"Ġgerichtet":5527,"Ġbewussten":5528,"ĠbewuÃŁten":5529,"atement":5530,"mittelt":5531,"rÃ¶m":5532,"ĠAbhÃ¤ng":5533,"ĠAbbild":5534,"ĠMÃ¶glichkeitsraum":5535,"Ġgeschrieben":5536,"ĠZugriff":5537,"ĠZugang":5538,"ordnung":5539,"ituationen":5540,"ĠBedeutungen":5541,"ĠBedeutungs":5542,"ĠEntwicklungen":5543,"ĠProzessualitÃ¤t":5544,"Ġweiterer":5545,"Ġweiteres":5546,"Ġzusammengesetzt":5547,"ziehung":5548,"kret":5549,"Ġverbinden":5550,"ĠHervor":5551,"ĠHerstellung":5552,"ĠDenkprozesse":5553,"astisch":5554,"zusp":5555,"gends":5556,"Ġlebendig":5557,"Ġbesonderem":5558,"hinein":5559,"pekt":5560,"gewicht":5561,"ĠWesens":5562,"Ġgesteiger":5563,"ĠIndividualitÃ¤t":5564,"ĠInterpreten":5565,"Ġklare":5566,"ĠBeschrÃ¤nkung":5567,"Ġgebrauch":5568,"vollen":5569,"Ġargum":5570,"Ġwirklichen":5571,"ĠTechnizitÃ¤t":5572,"zeptieren":5573,"gaben":5574,"ĠEmergenz":5575,"ĠausgedrÃ¼ckt":5576,"ĠKopfes":5577,"Ġwesentlicher":5578,"ĠmuÃŁte":5579,"ĠEltern":5580,"ĠWortes":5581,"ĠReiz":5582,"Ġirri":5583,"ĠmÃ¶gliche":5584,"ĠAktivitÃ¤tsmuster":5585,"ĠKleinkind":5586,"Ġentstehenden":5587,"ĠSchluÃŁ":5588,"Ġphysischen":5589,"ĠÃ¤uÃŁerlich":5590,"Problem":5591,"okolle":5592,"ugl":5593,"ĠGeschichten":5594,"Ġvermuten":5595,"Ġbegrifflich":5596,"reiche":5597,"reicher":5598,"Ġobjektive":5599,"ĠHandlungsplan":5600,"ĠExistenzweise":5601,"ĠUrteilsfÃ¤higkeit":5602,"bricht":5603,"brig":5604,"drÃ¼cke":5605,"kehren":5606,"tragung":5607,"wohn":5608,"Ġemp":5609,"Ġemer":5610,"Ġemotion":5611,"Ġdirekte":5612,"Ġwollte":5613,"ĠReflexionstÃ¤tigkeit":5614,"Ġallgemeine":5615,"ĠKonstrukt":5616,"ĠJahre":5617,"Software":5618,"phase":5619,"ransp":5620,"Ġbiologisches":5621,"Ġinsbesonder":5622,"ĠAlles":5623,"ĠgrÃ¶ÃŁt":5624,"Ġgedank":5625,"ĠbedÃ¼rfen":5626,"ĠNichts":5627,"ĠNichtstun":5628,"ĠLeistung":5629,"Ġkonkreter":5630,"fÃ¤ll":5631,"Ġdeutschen":5632,"Ġdeutsche":5633,"ordent":5634,"ĠGenese":5635,"Ġobwohl":5636,"Ġentfalten":5637,"Ġhineinzuversetzen":5638,"ĠEinzelt":5639,"iÃŁheit":5640,"ĠWerken":5641,"ĠBestimmtheit":5642,"ĠlÃ¤ngeren":5643,"ĠProdukte":5644,"Ġteilen":5645,"Ġrational":5646,"Ġrationaler":5647,"Ġdifferenz":5648,"Ġdiskrete":5649,"Ġzentrale":5650,"ĠSearle":5651,"ĠBesonderen":5652,"ĠParadox":5653,"Ġbefreit":5654,"ĠFlori":5655,"ĠGefÃ¼hlen":5656,"ĠHandlungstheorie":5657,"ĠSinneseind":5658,"ĠSinneswahrnehm":5659,"ĠSinnesorgan":5660,"ĠSinnesreize":5661,"ĠZustands":5662,"holen":5663,"holung":5664,"strukturen":5665,"Ġnotwendige":5666,"ĠkÃ¶rperlich":5667,"ĠWiderspruch":5668,"Ġgeistige":5669,"Ġgeistiges":5670,"ĠDisposition":5671,"Ġgenauer":5672,"rÃ¤umen":5673,"Ġdigitale":5674,"Ġkulturelle":5675,"Ġverteilen":5676,"Ġgetrennt":5677,"Ġbevorzu":5678,"ĠNachhinein":5679,"fÃ¼llung":5680,"ĠBewegungen":5681,"ĠPerspektivwechsel":5682,"Ġwenigstens":5683,"ĠVerschaltungen":5684,"ĠVerschaltungs":5685,"determin":5686,"leitet":5687,"merkm":5688,"Ġideal":5689,"Ġideale":5690,"Ġkompeten":5691,"raktiken":5692,"ĠDasein":5693,"Ġlangsam":5694,"Ġlangfrist":5695,"Ġliegenden":5696,"Ġberuh":5697,"ĠBerechnung":5698,"ĠhÃ¶herstuf":5699,"ĠhÃ¶hergelegen":5700,"ĠAllgemeines":5701,"Darauf":5702,"ablÃ¤ufe":5703,"Ġendlich":5704,"ĠprÃ¤zis":5705,"tisiert":5706,"ĠSprÃ¼n":5707,"ĠGrade":5708,"ĠKompon":5709,"proken":5710,"Ġbewegen":5711,"ĠRationalismus":5712,"ĠNeue":5713,"ĠBeginn":5714,"Ġphilosophischen":5715,"ĠKontakt":5716,"ĠKontinuitÃ¤t":5717,"Ġspezialisiert":5718,"Ġmaschinelles":5719,"ĠIndividuums":5720,"Entsprechend":5721,"etisches":5722,"Ġhochk":5723,"Ġfalsche":5724,"ĠZeugnis":5725,"ĠTÃ¤tigkeiten":5726,"sprozess":5727,"ĠspÃ¤teren":5728,"ĠMerkmalen":5729,"Ġphysikalischer":5730,"ĠBetrachtungsweise":5731,"Reflexion":5732,"ReprÃ¤sentationen":5733,"Technologie":5734,"Ġsequ":5735,"Ġsequenz":5736,"ĠadÃ¤qu":5737,"Ġzerlegt":5738,"Ġbehalten":5739,"Ġbeheima":5740,"ĠGerÃ¼st":5741,"ĠWirtschaft":5742,"ĠKorresp":5743,"Ġbeobachtet":5744,"ĠVerstehenserwart":5745,"ĠErwartung":5746,"Ġentstandene":5747,"Ġandernfalls":5748,"ĠAussagen":5749,"Ġbasierend":5750,"Ġentsprechende":5751,"ĠMethode":5752,"ĠVerarbeitungsal":5753,"Ġschlechter":5754,"Ġgemeinsame":5755,"ĠSchriftstellers":5756,"ĠBuchstÃ¤b":5757,"ĠSelbstgesprÃ¤che":5758,"ĠWahrscheinlichkeiten":5759,"ahnsinn":5760,"mutter":5761,"Ġungeheure":5762,"Ġunbestimmt":5763,"Ġmodifiz":5764,"Ġbeinahe":5765,"Ġinformation":5766,"Ġindividuelle":5767,"Ġzutrifft":5768,"ĠAdorno":5769,"ĠAntworten":5770,"Ġhohen":5771,"ĠRÃ¼ckkehr":5772,"reichtum":5773,"ĠRechenoper":5774,"Ġsteuert":5775,"ĠschÃ¶ne":5776,"ĠAnsammlung":5777,"ĠAnwendung":5778,"ĠSelbstreferenz":5779,"ĠEntstehungs":5780,"ĠArtefakt":5781,"ĠCodes":5782,"Ġtechnischem":5783,"Ġspielt":5784,"Ġspielen":5785,"Ġeinzelnes":5786,"Ġklassische":5787,"ĠÃľberzeugungen":5788,"ĠFragmente":5789,"PropositionalitÃ¤t":5790,"ĠÃ¼brig":5791,"Ġwechselsei":5792,"Ġwechselwirken":5793,"Ġintegriert":5794,"Ġintegrieren":5795,"ĠGrÃ¼nden":5796,"ĠMiÃŁbraucher":5797,"Ġheutige":5798,"Ġfehlen":5799,"Ġerlangen":5800,"Ġerinnert":5801,"ĠDualismus":5802,"ĠErweiterung":5803,"ĠGewiÃŁheit":5804,"ĠLuft":5805,"ĠLernvorgang":5806,"ĠInstrument":5807,"ĠScheins":5808,"ĠStandpunkt":5809,"ĠphÃ¤nomenale":5810,"Ġgesamte":5811,"Ġgesamten":5812,"Ġexternen":5813,"Ġkleiner":5814,"ĠNervensystems":5815,"Bewusstsein":5816,"BewuÃŁtsein":5817,"ĠTextes":5818,"Ġspezifischen":5819,"Ġdeterminiert":5820,"Ġdeterministisch":5821,"ĠHypothesen":5822,"Handeln":5823,"ZusammenhÃ¤nge":5824,"ackmor":5825,"Ġontologischen":5826,"Ġdezentr":5827,"Ġsimulieren":5828,"Ġakust":5829,"Ġakzeptieren":5830,"Ã¤lligkeit":5831,"Ġnormalen":5832,"ĠnÃ¤her":5833,"ĠnÃ¤chsten":5834,"ĠnÃ¤chste":5835,"ĠzerstÃ¶ren":5836,"ĠzukÃ¼nftige":5837,"ĠMeinung":5838,"ĠhÃ¤ngen":5839,"ĠhÃ¤ngt":5840,"Ġhilft":5841,"ĠEingliederung":5842,"ĠEingangss":5843,"ĠWiederholung":5844,"Ġerfolg":5845,"Ġerfolgt":5846,"Ġanschaulich":5847,"Ġanalysiert":5848,"ĠFreund":5849,"ĠZufall":5850,"ĠZufÃ¤lligkeit":5851,"ĠZwischenraum":5852,"Ġleider":5853,"ĠHierarchie":5854,"ĠalltÃ¤glichen":5855,"zuschreibungen":5856,"Ġregul":5857,"Ġreflexiver":5858,"Ġepisod":5859,"Ġparallel":5860,"ĠrÃ¼cksichtslos":5861,"lÃ¶sungs":5862,"Andererseits":5863,"ĠlebenslÃ¤nglich":5864,"Ġintellektuellen":5865,"Ġ194":5866,"Ġkompliz":5867,"ĠDetailreichtum":5868,"ĠForschungen":5869,"ĠForschungs":5870,"ĠursprÃ¼nglich":5871,"Ġsuggeriert":5872,"Ġsuggerieren":5873,"Ġablaufenden":5874,"Ġbeherrschen":5875,"Ġbeherrscht":5876,"Ġreduziert":5877,"Ġreduzieren":5878,"Menschliche":5879,"Wahrnehmung":5880,"ippfehler":5881,"leistungen":5882,"Ġdynamische":5883,"Ġsemantische":5884,"Ġassoziiert":5885,"Ġvisuellen":5886,"Ġeinfachen":5887,"ĠAssemblage":5888,"ĠKnoten":5889,"Ġflexibel":5890,"Ġfalls":5891,"ĠBehandlung":5892,"ĠBilder":5893,"ĠBotschaft":5894,"ĠBÃ¼cher":5895,"Ġvermitteln":5896,"sequenzen":5897,"ĠVerlauf":5898,"ĠBedÃ¼rf":5899,"ĠlÃ¤cherlich":5900,"ĠUnendlichkeit":5901,"Ġsogenannte":5902,"ĠselbstverstÃ¤ndlich":5903,"ĠSchachspiel":5904,"ĠtÃ¶ten":5905,"Ġtrotzdem":5906,"ĠUnverstÃ¤nd":5907,"ĠSpezifik":5908,"gorhythm":5909,"Ġgeneriert":5910,"ĠbeschrÃ¤nkt":5911,"ĠProgrammierer":5912,"ĠDarstellungs":5913,"ĠGelingens":5914,"ĠPotential":5915,"ĠPotenzialitÃ¤t":5916,"ĠSynchronisation":5917,"ĠBegrÃ¼ndung":5918,"ĠSubstanz":5919,"ĠÃĦuÃŁerungen":5920,"Ġneurobiologischer":5921,"ĠManuskripte":5922,"Ġdistributiv":5923,"ĠRoboter":5924,"Genau":5925,"IdentitÃ¤t":5926,"jenigen":5927,"somorph":5928,"vÃ¶l":5929,"Ġsehe":5930,"ĠeinfÃ¼gt":5931,"ĠSuche":5932,"Ġkorrel":5933,"ĠkohÃ¤rente":5934,"ĠGrÃ¶ÃŁen":5935,"ĠGruppen":5936,"ĠMolekÃ¼le":5937,"Ġverantwortlich":5938,"Ġanthropo":5939,"ĠPhysik":5940,"Ġaufgebaut":5941,"umpfsinn":5942,"ĠNormen":5943,"ĠVerfÃ¼gung":5944,"ĠZettel":5945,"ĠZentrum":5946,"ĠTopologie":5947,"ĠTerms":5948,"ĠlosgelÃ¶st":5949,"ĠInnenperspektive":5950,"ĠRechner":5951,"Ġstudieren":5952,"Ġvornehmlich":5953,"ĠSchaltkrei":5954,"Ġtheoretischen":5955,"Ġreziproken":5956,"ĠAnpass":5957,"ĠÃ¤lteren":5958,"Ġetabliert":5959,"ĠBewertung":5960,"Ġriesigen":5961,"Ġjemand":5962,"Ġniedrigen":5963,"Ġwahrnehmbar":5964,"ĠExperi":5965,"ĠZuhÃ¶rer":5966,"ĠIdentifikation":5967,"ĠMetareprÃ¤sentationen":5968,"ĠEmpathie":5969,"Ġzweiwertigen":5970,"ĠAutonomie":5971,"Ġdisziplinieren":5972,"ĠNarrativismus":5973,"Ġschlechthin":5974,"ĠbenÃ¶tigt":5975,"Ġresultieren":5976,"Ġelementare":5977,"Ġsubsumieren":5978,"Ġignorieren":5979,"ĠErwachsenenalter":5980,"ĠstÃ¤rkere":5981,"Ġkontrolliert":5982,"Hingegen":5983,"Narrationen":5984,"Sobald":5985,"Wahrheit":5986,"niveau":5987,"szill":5988,"Ġelekt":5989,"Ġduldet":5990,"intelligenz":5991,"Ġsammeln":5992,"Ġnirgends":5993,"Ġnumer":5994,"Ġeinheitliches":5995,"ĠeinprÃ¤gen":5996,"ĠSensoren":5997,"Ġkopiert":5998,"ĠAckoff":5999,"ĠMcCulloch":6000,"ĠBausteine":6001,"Ġgrenzenlos":6002,"Ġverbindet":6003,"Ġverfolgt":6004,"Ġanerkannt":6005,"ĠFestlegung":6006,"ĠFÃ¼lle":6007,"ĠVerzweiflung":6008,"ĠBegegnung":6009,"ĠErfolg":6010,"ĠErzÃ¤hlungen":6011,"ĠHerkunft":6012,"ĠLustprinzip":6013,"Ġvorangetrieben":6014,"ĠSpektrum":6015,"ĠSpontaneitÃ¤t":6016,"ĠevolutionÃ¤r":6017,"ĠAnalogie":6018,"Einzelne":6019,"Ġabgelenkt":6020,"sprÃ¼che":6021,"ĠBewusstwerdung":6022,"ĠBewÃ¤ltigung":6023,"Ġnachgeschalte":6024,"ĠgegenwÃ¤rtige":6025,"Ġprobabil":6026,"ĠArbeitsteilung":6027,"Ġzeitlebens":6028,"ĠExtended":6029,"Ġargumen":6030,"ĠHandlungsplanung":6031,"Ġinsbesondere":6032,"ĠFloridi":6033,"ĠhÃ¶hergelegenen":6034,"Ġbeheimatet":6035,"ĠKorrespondenz":6036,"ĠVerstehenserwartung":6037,"ĠRechenoperationen":6038,"ackmore":6039,"ĠEingangssignalen":6040,"Ġanthropozentr":6041,"'s":6042,");":6043,"80":6044,"Ad":6045,"Am":6046,"Are":6047,"Abstra":6048,"Aristoteles":6049,"Bis":6050,"Beh":6051,"BST":6052,"DE":6053,"Des":6054,"Deren":6055,"Digit":6056,"EL":6057,"Em":6058,"Et":6059,"For":6060,"FlieÃŁen":6061,"Fehler":6062,"Grund":6063,"GroÃŁ":6064,"GrÃ¼n":6065,"Gambetti":6066,"Ged":6067,"Gott":6068,"Goffe":6069,"He":6070,"Heute":6071,"Haben":6072,"ICH":6073,"KI":6074,"Kann":6075,"Kultur":6076,"KÃ¶rper":6077,"Keine":6078,"Kurz":6079,"KÃ¼nstler":6080,"Komplexe":6081,"KalkÃ¼le":6082,"Lange":6083,"Mehr":6084,"Mitt":6085,"Meine":6086,"Moderne":6087,"NN":6088,"NT":6089,"Nun":6090,"Neur":6091,"Neugier":6092,"Neum":6093,"Oder":6094,"Oper":6095,"Par":6096,"Philosoph":6097,"PlÃ¶tz":6098,"Person":6099,"Perspektive":6100,"Rhyt":6101,"Sich":6102,"Seit":6103,"Soll":6104,"Somit":6105,"Symbole":6106,"SST":6107,"Test":6108,"Theor":6109,"TatsÃ¤ch":6110,"Turing":6111,"Tiere":6112,"Ulrich":6113,"USST":6114,"Vers":6115,"ValÃ©ry":6116,"WÃ¤":6117,"Wissen":6118,"WÃ¼rde":6119,"Zum":6120,"Zwar":6121,"].":6122,"ao":6123,"av":6124,"az":6125,"aber":6126,"akte":6127,"ahm":6128,"aÃŁt":6129,"ahnen":6130,"ackt":6131,"aven":6132,"bte":6133,"bten":6134,"beh":6135,"bach":6136,"bungen":6137,"bÃ¤nden":6138,"bspw":6139,"back":6140,"brech":6141,"ction":6142,"cement":6143,"ctive":6144,"caul":6145,"dis":6146,"dund":6147,"dacht":6148,"dikal":6149,"dynam":6150,"daÃŁ":6151,"ez":6152,"ektion":6153,"etik":6154,"fr":6155,"fle":6156,"find":6157,"frei":6158,"feren":6159,"fort":6160,"flos":6161,"funden":6162,"frie":6163,"findet":6164,"feind":6165,"fizi":6166,"gger":6167,"grÃ¶":6168,"gbaren":6169,"grupp":6170,"glÃ¼ck":6171,"hst":6172,"hend":6173,"hische":6174,"hab":6175,"hÃ¤ren":6176,"hunder":6177,"homas":6178,"iti":6179,"ide":6180,"iff":6181,"itische":6182,"igem":6183,"iÃŁt":6184,"ifferenz":6185,"idiert":6186,"ici":6187,"iogra":6188,"jahr":6189,"kern":6190,"kraft":6191,"kÃ¤m":6192,"krÃ¤fte":6193,"kulationen":6194,"lern":6195,"letzt":6196,"lad":6197,"letzte":6198,"mei":6199,"mlich":6200,"mischen":6201,"mos":6202,"mod":6203,"mÃ¤chtig":6204,"mÃ¶glichkeiten":6205,"nÃ¤":6206,"natur":6207,"nommen":6208,"neig":6209,"nerhalb":6210,"nutzen":6211,"nitz":6212,"ou":6213,"ow":6214,"oz":6215,"oge":6216,"oir":6217,"otiv":6218,"ock":6219,"otische":6220,"ozeÃŁ":6221,"pan":6222,"pol":6223,"piel":6224,"ppe":6225,"person":6226,"punkte":6227,"rn":6228,"rinden":6229,"rielle":6230,"richtete":6231,"su":6232,"sich":6233,"sheit":6234,"system":6235,"selch":6236,"sage":6237,"smodell":6238,"sive":6239,"sformen":6240,"swissenschaft":6241,"synchron":6242,"sorien":6243,"sgrad":6244,"szentrum":6245,"sacher":6246,"sweltlichen":6247,"smateri":6248,"tt":6249,"tie":6250,"ton":6251,"top":6252,"tag":6253,"tiell":6254,"trem":6255,"treibung":6256,"tokolle":6257,"usch":6258,"uhr":6259,"utet":6260,"utieren":6261,"vis":6262,"viel":6263,"vitation":6264,"voz":6265,"weich":6266,"wÃ¤ch":6267,"wesen":6268,"wÃ¤l":6269,"wichtig":6270,"wahn":6271,"wton":6272,"xim":6273,"zig":6274,"zÃ¤h":6275,"zeigt":6276,"zeiten":6277,"zination":6278,"zersetzung":6279,"ÃĦ":6280,"Ġ0":6281,"Ġ7":6282,"Ġc":6283,"Ġei":6284,"Ġrei":6285,"Ġru":6286,"Ġech":6287,"Ġenden":6288,"Ġtier":6289,"Ġtext":6290,"Ġorgan":6291,"Ġruh":6292,"Ġorien":6293,"Ġtil":6294,"Ġeuch":6295,"Ġordent":6296,"Ġ80":6297,"erei":6298,"erisch":6299,"erliche":6300,"erlichen":6301,"erne":6302,"erste":6303,"erstellen":6304,"chte":6305,"chste":6306,"chest":6307,"ĠdÃ¼r":6308,"Ġdro":6309,"Ġdritte":6310,"Ġdeuten":6311,"Ġdeinem":6312,"inent":6313,"iniert":6314,"inglich":6315,"inform":6316,"inim":6317,"inaten":6318,"inhalte":6319,"inci":6320,"unsch":6321,"unken":6322,"ieten":6323,"iefen":6324,"ieuren":6325,"stu":6326,"stes":6327,"stra":6328,"stÃ¼r":6329,"stischen":6330,"stlos":6331,"stabil":6332,"stgehend":6333,"stoffe":6334,"stÃ¼cken":6335,"strÃ¶m":6336,"Ġsit":6337,"Ġsper":6338,"Ġsyn":6339,"Ġsele":6340,"Ġsuchen":6341,"Ġsechs":6342,"eiden":6343,"eide":6344,"eiert":6345,"eiÃŁen":6346,"eife":6347,"esein":6348,"essel":6349,"esmÃ¤ÃŁ":6350,"eink":6351,"einstimm":6352,"einlassen":6353,"onen":6354,"onieren":6355,"Ġwelt":6356,"Ġwand":6357,"Ġwache":6358,"Ġwomit":6359,"schÃ¤t":6360,"schwer":6361,"schatz":6362,"schichten":6363,"schreibungen":6364,"schÃ¶pf":6365,"Ġungel":6366,"Ġunvoll":6367,"Ġunzeit":6368,"Ġunzur":6369,"Ġunwichtig":6370,"eld":6371,"elung":6372,"elbar":6373,"elang":6374,"elemen":6375,"eleistung":6376,"tialitÃ¤t":6377,"tiere":6378,"Ã¤tig":6379,"Ã¤ÃŁt":6380,"Ã¤ugl":6381,"Ġiter":6382,"Ġisol":6383,"ane":6384,"anl":6385,"ans":6386,"ante":6387,"anter":6388,"anfÃ¤llig":6389,"Ġvir":6390,"Ġvari":6391,"asen":6392,"asse":6393,"asste":6394,"Ġno":6395,"Ġnutz":6396,"Ġneben":6397,"Ġeinsch":6398,"Ġeingesch":6399,"Ġeingenommen":6400,"Ġeingeh":6401,"Ġeingeg":6402,"Ġeingeschlossen":6403,"Ġeingesetzt":6404,"Ġeingeschrieben":6405,"Ġeinatmen":6406,"Ġderzeit":6407,"Ġzirk":6408,"Ġzeig":6409,"Ġmyst":6410,"Ġmussten":6411,"Ġmorgen":6412,"Ġminim":6413,"Ã¼t":6414,"Ã¼gen":6415,"Ã¼hm":6416,"Ã¼hne":6417,"Ã¼chen":6418,"geber":6419,"gebe":6420,"getieren":6421,"gehalten":6422,"gebene":6423,"gekommen":6424,"geahm":6425,"gefunden":6426,"Ġundifferenz":6427,"ural":6428,"urteilen":6429,"uronen":6430,"alil":6431,"alische":6432,"aloge":6433,"orischen":6434,"gent":6435,"genden":6436,"ĠSich":6437,"ĠSte":6438,"ĠSter":6439,"ĠSing":6440,"ĠSehen":6441,"ĠSagen":6442,"ĠSkl":6443,"ĠSele":6444,"ĠSub":6445,"ĠSeneca":6446,"ĠSituationen":6447,"ĠSEL":6448,"ĠSÃ¤ugl":6449,"testgehend":6450,"Ġbel":6451,"Ġbem":6452,"Ġbeit":6453,"ĠbÃ¼r":6454,"Ġbrauch":6455,"ĠbÃ¼nd":6456,"Ġbayes":6457,"Ġbietet":6458,"Ġbliebe":6459,"Ġinti":6460,"Ġineinander":6461,"Ġinmit":6462,"Ġinstr":6463,"Ġindust":6464,"ĠinhÃ¤ren":6465,"Ġinstabil":6466,"lichte":6467,"irgt":6468,"irische":6469,"ĠkÃ¼r":6470,"Ġkolle":6471,"Ġkatastro":6472,"Ġkapital":6473,"empf":6474,"itten":6475,"itzen":6476,"Ġzukommen":6477,"ĠzustÃ¤ndig":6478,"Ġzuschreiben":6479,"Ġzukommt":6480,"ĠzufÃ¤llig":6481,"ĠzufÃ¤ll":6482,"Ġzuletzt":6483,"ichtungen":6484,"arm":6485,"arben":6486,"arheit":6487,"arische":6488,"arfen":6489,"arrt":6490,"denkt":6491,"ierbaren":6492,"ierbarkeit":6493,"ierungsmuster":6494,"Ã¶v":6495,"Ã¶se":6496,"Ã¶hnung":6497,"Ã¶mischen":6498,"ĠGo":6499,"ĠGÃ¤n":6500,"ĠGro":6501,"ĠGanz":6502,"ĠGlau":6503,"ĠGrenz":6504,"ĠGanzen":6505,"ĠGalil":6506,"ĠAff":6507,"ĠAktiv":6508,"ĠAhnung":6509,"ĠAxi":6510,"ĠANT":6511,"ĠMÃ¶":6512,"ĠMehr":6513,"ĠMÃ¤ch":6514,"ĠMacht":6515,"ĠMomen":6516,"ĠMinu":6517,"ĠModerne":6518,"ĠMentalen":6519,"ĠMachine":6520,"Ġalte":6521,"Ġalter":6522,"Ġhind":6523,"Ġheter":6524,"Ġhart":6525,"Ġhalte":6526,"Ġhallu":6527,"ĠEffizi":6528,"ĠEIN":6529,"ĠWas":6530,"ĠWand":6531,"ĠWesent":6532,"ĠWelten":6533,"ĠWiese":6534,"ĠWernicke":6535,"ĠWunsch":6536,"ĠKor":6537,"ĠKar":6538,"ĠKern":6539,"ĠKohÃ¤renz":6540,"ĠKÃ¶pfe":6541,"ĠKalkÃ¼le":6542,"ĠKNN":6543,"ledigen":6544,"lehnung":6545,"tend":6546,"tentionen":6547,"Ġfor":6548,"Ġfat":6549,"Ġfre":6550,"Ġfand":6551,"Ġfern":6552,"Ġfing":6553,"Ġfund":6554,"Ġfrem":6555,"Ġfiele":6556,"Ġfasst":6557,"ĠfÃ¼nf":6558,"ĠflieÃŁt":6559,"Ġfragt":6560,"Ġfurcht":6561,"isiert":6562,"ĠBett":6563,"ĠBilden":6564,"ĠBahn":6565,"tergrund":6566,"rat":6567,"raht":6568,"raschung":6569,"Ġerd":6570,"Ġerle":6571,"Ġerfahr":6572,"ĠergÃ¤n":6573,"Ġerfor":6574,"Ġersichtlich":6575,"Ġerho":6576,"Ġerfolgen":6577,"Ġerleb":6578,"Ġerschaffen":6579,"Ġerziel":6580,"ĠerfaÃŁt":6581,"Ġereignen":6582,"Ġergebe":6583,"Ġgere":6584,"ĠgrÃ¼n":6585,"ĠgÃ¼l":6586,"Ġgleicht":6587,"Ġguten":6588,"ĠglÃ¼ck":6589,"bernitz":6590,"berÃ¼hm":6591,"indiv":6592,"Ġverh":6593,"Ġverz":6594,"Ġverle":6595,"Ġverinn":6596,"Ġverfin":6597,"Ġvergehen":6598,"Ġvereint":6599,"ĠvermÃ¶gen":6600,"Ġvermittel":6601,"ĠverrÃ¼ckt":6602,"Ġverfolgen":6603,"ĠverstÃ¤ndlich":6604,"Ġverhand":6605,"Ġverzweif":6606,"Ġverschaffen":6607,"Ġverarbeiten":6608,"Ġveranl":6609,"Ġsicherer":6610,"atten":6611,"atom":6612,"ather":6613,"athem":6614,"Ġand":6615,"Ġanp":6616,"Ġangel":6617,"Ġannimmt":6618,"Ġangelegt":6619,"Ġanzunehmen":6620,"Ġanalogen":6621,"Ġanatom":6622,"olitische":6623,"igten":6624,"igieren":6625,"sebenen":6626,"sequenz":6627,"ĠDich":6628,"ĠDro":6629,"ĠDang":6630,"ĠDNS":6631,"ĠDress":6632,"ĠDauer":6633,"deckung":6634,"ĠICH":6635,"ĠIsomorph":6636,"Ġgebe":6637,"Ġgehalten":6638,"Ġgetr":6639,"Ġgezw":6640,"ĠgefÃ¼hrt":6641,"ĠgefÃ¼llt":6642,"Ġgetragen":6643,"ĠgefÃ¼hl":6644,"Ġgezeigt":6645,"entiell":6646,"prob":6647,"produz":6648,"programm":6649,"kenntnis":6650,"ktÃ¼r":6651,"ĠPre":6652,"ĠPass":6653,"ĠPauen":6654,"ĠPraktiken":6655,"Ġbean":6656,"Ġbesteh":6657,"Ġbewer":6658,"Ġbeding":6659,"Ġbefassen":6660,"Ġbefinden":6661,"Ġbeweisen":6662,"Ġbekommt":6663,"Ġbearbeiten":6664,"ĠbezÃ¼glich":6665,"Ġbeurteilen":6666,"Ġauffall":6667,"ĠauflÃ¶":6668,"Ġaufgenommen":6669,"ĠaufgelÃ¶st":6670,"Ġauftreten":6671,"Ġaufmachen":6672,"ĠFa":6673,"ĠFuÃŁ":6674,"ĠFam":6675,"ĠFangen":6676,"ĠFlieÃŁen":6677,"ĠFurcht":6678,"ĠFou":6679,"Ġeskal":6680,"Ġdenk":6681,"Ã¤nge":6682,"Ã¤ngen":6683,"Ã¤ngt":6684,"achie":6685,"achung":6686,"achter":6687,"umfassen":6688,"bsten":6689,"ĠRom":6690,"ĠRand":6691,"ĠRuf":6692,"ĠRausch":6693,"ĠRNS":6694,"ĠRichtung":6695,"ĠRahmen":6696,"ĠRichtungen":6697,"ĠNeur":6698,"ĠNot":6699,"ĠNÃ¤he":6700,"ĠNietz":6701,"oms":6702,"omet":6703,"omogen":6704,"Ġmithin":6705,"Ġmitunter":6706,"ĠVerschie":6707,"ĠVerteil":6708,"ĠVerstÃ¤nd":6709,"ĠVervoll":6710,"ĠVerkehr":6711,"ĠVerwirk":6712,"ĠVerrÃ¼ckt":6713,"ĠVermut":6714,"ĠVerÃ¤nderungen":6715,"ĠVerzwei":6716,"ĠVerallgemein":6717,"ĠVerhÃ¤ltnisse":6718,"ĠZers":6719,"ĠZiv":6720,"ĠZiele":6721,"Ġoszill":6722,"ĠTu":6723,"ĠTra":6724,"ĠTat":6725,"ĠTats":6726,"ĠThese":6727,"ĠTausende":6728,"ĠTradition":6729,"ĠTransp":6730,"ĠTippfehler":6731,"rosp":6732,"rover":6733,"ĠBege":6734,"ĠBeacht":6735,"ĠBevÃ¶l":6736,"Ġdavor":6737,"Ġdagegen":6738,"Ġaushalten":6739,"Ġausgehen":6740,"Ġausdenken":6741,"Ġausbilden":6742,"Ġausreichend":6743,"Ġlau":6744,"Ġlesen":6745,"Ġlachen":6746,"Ġliter":6747,"Ġlenkt":6748,"Ġleisten":6749,"auch":6750,"auigkeit":6751,"austausch":6752,"ilett":6753,"ilisation":6754,"eutigkeit":6755,"ĠUtop":6756,"bezieh":6757,"bezug":6758,"tiven":6759,"andt":6760,"ĠErzeugen":6761,"ĠErforschung":6762,"ĠErzÃ¤h":6763,"ffer":6764,"ĠGeste":6765,"ĠGefÃ¤hr":6766,"ĠGewohn":6767,"ischten":6768,"ĠHol":6769,"ĠHoch":6770,"ĠHaus":6771,"ĠHaut":6772,"ĠHay":6773,"ĠHalte":6774,"ĠHallu":6775,"ĠHeide":6776,"ieller":6777,"ĠLi":6778,"ĠLes":6779,"ĠLicht":6780,"ĠLehr":6781,"ĠLog":6782,"ĠLill":6783,"ĠLondon":6784,"ĠLÃ¼ge":6785,"hebt":6786,"etzten":6787,"cker":6788,"ennten":6789,"ĠInkommen":6790,"ĠInkohÃ¤renz":6791,"ĠInnern":6792,"ĠIntentionen":6793,"Ġentworfen":6794,"Ġentlang":6795,"Ġentledigen":6796,"reien":6797,"reite":6798,"reibe":6799,"ĠÃ¼berst":6800,"ĠÃ¼berein":6801,"ĠÃ¼berzeu":6802,"ĠÃ¼berall":6803,"ĠÃ¼berleben":6804,"ĠÃ¼berdenken":6805,"ĠÃ¼bersetzt":6806,"ĠÃ¼bernimmt":6807,"ĠOhn":6808,"ĠOffen":6809,"ĠOberflÃ¤che":6810,"ierendes":6811,"eilende":6812,"eiligten":6813,"Ġnurmehr":6814,"Ġdasselbe":6815,"ĠReprÃ¤sen":6816,"ĠRekon":6817,"ĠRedund":6818,"Ġallert":6819,"Ġallumfassen":6820,"ochten":6821,"ochastisch":6822,"rige":6823,"rialisierung":6824,"Ġstol":6825,"Ġstand":6826,"Ġstren":6827,"ĠstÃ¤nd":6828,"Ġstap":6829,"Ġstaun":6830,"Ġstati":6831,"Ġsterben":6832,"Ġsteigern":6833,"Ġstumpfsinn":6834,"Ġstochastisch":6835,"menten":6836,"Ġscheiter":6837,"Ġschrieb":6838,"Ġschmer":6839,"Ġschieben":6840,"Ġschafft":6841,"Ġscheinbar":6842,"Ġschreibe":6843,"Ġzweit":6844,"Ġzwingt":6845,"ĠProbe":6846,"ĠMaschen":6847,"halter":6848,"ĠWeltanschauung":6849,"ĠWeltverhÃ¤ltnis":6850,"zustand":6851,"zuha":6852,"zuerkennen":6853,"Ġanderem":6854,"odes":6855,"echter":6856,"Ġsoweit":6857,"Ġsoviel":6858,"Ġvorge":6859,"Ġvorver":6860,"Ġvorbild":6861,"Ġvorhers":6862,"Ġvorstruktur":6863,"Ġvornimmt":6864,"Ġvorschreiben":6865,"Ġvorzustellen":6866,"Ġvorgesehen":6867,"Ġvorzugehen":6868,"Ġselbstorganis":6869,"eistungen":6870,"eisterung":6871,"Ġumgehen":6872,"Ġumgew":6873,"Ġumgesetzt":6874,"Ġumfasst":6875,"ĠKunstmensch":6876,"ĠKunstproduktion":6877,"ĠKunstmutter":6878,"nektion":6879,"neuronen":6880,"ungsfÃ¤higkeit":6881,"ungspro":6882,"ungsprozess":6883,"ungsleistungen":6884,"ungsschichten":6885,"uth":6886,"utzt":6887,"rachters":6888,"tiger":6889,"endes":6890,"endung":6891,"gliches":6892,"Ġhast":6893,"uld":6894,"ulen":6895,"ulÃ¤ren":6896,"ularen":6897,"ĠSchaus":6898,"ĠSchim":6899,"ĠSchwe":6900,"ĠSchlieÃŁen":6901,"ĠSchaffen":6902,"ĠSchriften":6903,"Ġtor":6904,"Ġtre":6905,"Ġtop":6906,"ĠtÃ¤u":6907,"Ġtue":6908,"Ġtreffen":6909,"ĠtÃ¤tigen":6910,"renge":6911,"ĠGehÃ¶r":6912,"ĠGeheimnis":6913,"Ġreal":6914,"Ġrechn":6915,"Ġrealer":6916,"Ġreflek":6917,"Ġrecht":6918,"ĠreprÃ¤sentation":6919,"Ġrekombin":6920,"ĠStich":6921,"ĠStatement":6922,"ĠStrenge":6923,"istente":6924,"istenzen":6925,"istrieren":6926,"Ġdarstellt":6927,"prÃ¤gung":6928,"Ã¼nden":6929,"ĠUngew":6930,"ĠUnmittel":6931,"ĠUnzusammenhÃ¤n":6932,"Ã¤ht":6933,"ĠSpur":6934,"Ġevol":6935,"Ġego":6936,"bart":6937,"Ġzurecht":6938,"ĠObjektiven":6939,"amp":6940,"amage":6941,"amentalen":6942,"ĠAnre":6943,"ĠAntik":6944,"ĠAneig":6945,"ĠAnsatz":6946,"ĠAnfang":6947,"ĠAnnÃ¤h":6948,"ĠAnbindung":6949,"ĠAnlehnung":6950,"Ġunterschieden":6951,"Ġunterlegen":6952,"Ġunterordnen":6953,"Ġunterliegt":6954,"Ġunterworfen":6955,"ĠunterschÃ¤t":6956,"aussetzung":6957,"auslÃ¶schung":6958,"ernde":6959,"weile":6960,"weisung":6961,"ĠplÃ¤":6962,"Ġpoten":6963,"Ġperson":6964,"Ġpaar":6965,"Ġpolitische":6966,"ingungen":6967,"ingste":6968,"ĠSelbster":6969,"ĠSelbstbild":6970,"ĠSelbstbewuÃŁtsein":6971,"ĠSelbstverstÃ¤ndnis":6972,"ĠSelbstdar":6973,"ĠSelbstiden":6974,"ĠSelbstzuschreibungen":6975,"ĠSelbstzersetzung":6976,"ĠSelbstauslÃ¶schung":6977,"Ġwenngleich":6978,"blik":6979,"blose":6980,"fahrung":6981,"Ã¶rm":6982,"Indi":6983,"Innerhalb":6984,"uchte":6985,"fÃ¼hle":6986,"henfolge":6987,"agramm":6988,"Ġmanchmal":6989,"ĠmanÃ¶v":6990,"Ġimmerhin":6991,"Ġimmerfort":6992,"Einfach":6993,"ufen":6994,"Ġkonsequ":6995,"ĠKonkre":6996,"ĠKonstitution":6997,"ĠKonsequenzen":6998,"ĠKonsequenz":6999,"ĠGedachte":7000,"ĠeigenstÃ¤ndige":7001,"ĠEntwerfen":7002,"ĠEntschiedenheit":7003,"ĠEnttÃ¤u":7004,"ĠEntdeckung":7005,"hmann":7006,"spezi":7007,"spunkte":7008,"Ġabger":7009,"Ġabspiel":7010,"Ġabzug":7011,"Ġabhanden":7012,"Ġabgest":7013,"Ġabzusch":7014,"Ġabsur":7015,"ĠabschlieÃŁen":7016,"ĠSystemzustÃ¤nde":7017,"ĠGehirnreg":7018,"zenden":7019,"abri":7020,"llen":7021,"Ã¼ssen":7022,"Ġhinreichend":7023,"eichend":7024,"spricht":7025,"sprozeÃŁ":7026,"sprÃ¼chen":7027,"ĠUmform":7028,"ĠUmgeben":7029,"dium":7030,"digem":7031,"diktive":7032,"dictive":7033,"perte":7034,"ĠFormale":7035,"ĠFormeln":7036,"ĠFormalismus":7037,"ĠFormalismen":7038,"ĠBewusste":7039,"ĠVorteil":7040,"ĠVorhanden":7041,"Ġnachdem":7042,"Ġnachgeahm":7043,"ĠComputing":7044,"Ġwiederzuerkennen":7045,"ĠNaturalisierung":7046,"ĠNaturwissenschaft":7047,"usstes":7048,"liedert":7049,"ubjekt":7050,"verl":7051,"verfahren":7052,"verstanden":7053,"ĠEinst":7054,"ĠEinmal":7055,"ĠEinbild":7056,"ĠEinstellung":7057,"ĠEinfÃ¼hrung":7058,"ĠEinfÃ¤l":7059,"alisierbar":7060,"ĠLeere":7061,"ĠLeerstellen":7062,"ĠLektÃ¼r":7063,"Ã¤chlich":7064,"ĠGedankenstrÃ¶m":7065,"Ġbeide":7066,"Ġbeispiel":7067,"Ġhereinlassen":7068,"ĠWahrnehmen":7069,"ĠGeister":7070,"Ġgesehen":7071,"Ġgesucht":7072,"Ġlebe":7073,"Ġleblose":7074,"achtungen":7075,"ĠGegenÃ¼ber":7076,"teils":7077,"Ġreinen":7078,"Ġrichtige":7079,"Ġroman":7080,"ĠrÃ¶mischen":7081,"Ġtechnologischen":7082,"lichkeiten":7083,"ĠAuslÃ¶schung":7084,"ĠAuswahl":7085,"serfÃ¼llung":7086,"esenen":7087,"Ġvieldeu":7088,"Ġvielfach":7089,"ĠvielfÃ¤l":7090,"Ã¼cklich":7091,"ĠMenschliches":7092,"Ġextrem":7093,"ĠÃľ":7094,"Ġspiegeln":7095,"Ġspez":7096,"gebildet":7097,"gebrochen":7098,"othe":7099,"ottet":7100,"steckt":7101,"ĠWerkes":7102,"ĠWerkbegriff":7103,"ĠWerkformen":7104,"ĠWerkzeugen":7105,"ĠSprachverstÃ¤ndnis":7106,"gerei":7107,"gerichtigkeit":7108,"gelbart":7109,"ĠObjekteigenschaften":7110,"Wird":7111,"hnlichkeiten":7112,"ĠZeitgeschehen":7113,"gorithmus":7114,"Ġjens":7115,"stÃ¤ndigen":7116,"stÃ¤ndigkeit":7117,"Ġeinzus":7118,"Ġliege":7119,"Ġlieber":7120,"Ġliebe":7121,"Ġliegende":7122,"Ġliefern":7123,"Ġliebsten":7124,"izielle":7125,"ĠSubjekte":7126,"ĠSubjektive":7127,"ĠSubjektiven":7128,"Ġbese":7129,"Ġbesagt":7130,"Ġformt":7131,"Ġformales":7132,"ehenen":7133,"ĠAlter":7134,"ĠEng":7135,"ĠEndes":7136,"Ġblinden":7137,"beispielsweise":7138,"imeter":7139,"iminiert":7140,"werf":7141,"werden":7142,"standsbe":7143,"Ã¤res":7144,"Ã¤rkt":7145,"aufwendig":7146,"aufgabe":7147,"aufgaben":7148,"pfl":7149,"Ġgleichwohl":7150,"ĠgleichgÃ¼ltig":7151,"Ġweiterk":7152,"Ġweiteren":7153,"Ġweitere":7154,"Ġgewid":7155,"ĠgegenstÃ¤ndlich":7156,"Ġgegenstandsbe":7157,"ĠBegriffs":7158,"ĠLebendigen":7159,"ĠLebensent":7160,"ĠGesagte":7161,"ĠGesprochen":7162,"ĠGesetze":7163,"ĠGesellschaften":7164,"scheinend":7165,"ĠInternet":7166,"ĠInterven":7167,"Ġbestimmter":7168,"Ġbestimmtes":7169,"ĠOrte":7170,"ĠOrgan":7171,"ĠOrchest":7172,"haften":7173,"ingenz":7174,"ingendes":7175,"Uns":7176,"heorie":7177,"wendet":7178,"ĠSinnliche":7179,"Ġkleine":7180,"ĠFunktionalitÃ¤t":7181,"ĠFunktionierens":7182,"schiedene":7183,"Ġprozes":7184,"Ã¶rperung":7185,"Ġexistierte":7186,"Ġexistiere":7187,"maÃŁ":7188,"ĠfÃ¼gt":7189,"Erinnerungen":7190,"Erkenntnis":7191,"Ġvollen":7192,"etenzen":7193,"ĠbegnÃ¼":7194,"Ġbegreif":7195,"Ġbegleitet":7196,"fÃ¼hrbar":7197,"finder":7198,"plit":7199,"eigert":7200,"Ġerstaun":7201,"ĠÃľberw":7202,"ĠÃľbersetzung":7203,"ĠÃľberlegung":7204,"ĠÃľbertragung":7205,"ĠÃľbereinstimm":7206,"ĠÃľberraschung":7207,"ĠAufsch":7208,"ĠAufgeb":7209,"ĠAuflÃ¶sung":7210,"Ġgemachten":7211,"Ġgemischten":7212,"zeichen":7213,"zeichnet":7214,"ivitÃ¤t":7215,"struktion":7216,"Ġwahrhaft":7217,"Ġinnerer":7218,"Ġinteress":7219,"Ġallererst":7220,"ĠArbeiters":7221,"ĠArbeitsweise":7222,"ĠmÃ¶glicher":7223,"ĠmÃ¶glicherweise":7224,"ĠErkenntnissen":7225,"ĠErkenntnisvermÃ¶gen":7226,"ĠErkenntniskrÃ¤fte":7227,"ssysteme":7228,"ssituation":7229,"same":7230,"Ġbetroffen":7231,"Ġbetreffen":7232,"Ġkomplexes":7233,"ĠBericht":7234,"ĠBereichen":7235,"ĠBerechnen":7236,"ĠTheoretisches":7237,"antas":7238,"Diesem":7239,"klen":7240,"ĠkÃ¼nstlicher":7241,"ĠAug":7242,"ĠAuff":7243,"ĠAugenbl":7244,"illusion":7245,"illimeter":7246,"adig":7247,"ĠverlÃ¤u":7248,"ĠverlÃ¤ÃŁt":7249,"dessen":7250,"Ġwozu":7251,"Ġwoher":7252,"Ġwovon":7253,"Ġfreier":7254,"Ġverschiedenes":7255,"Ġverschiedenartig":7256,"attdessen":7257,"Ġdenkend":7258,"ĠZusammensetzungen":7259,"gemeine":7260,"Ġsinnlicher":7261,"Ġsinnvolle":7262,"ĠGrundstÃ¼cke":7263,"Ġgelungen":7264,"Ġgelesen":7265,"Ġgelernt":7266,"Ġgelegen":7267,"ĠTeilas":7268,"ĠTeilchen":7269,"ĠIdea":7270,"ĠIdealisierung":7271,"ĠPhÃ¤nomens":7272,"ĠNeurons":7273,"ĠProgrammieren":7274,"ĠzurÃ¼cksch":7275,"app":7276,"aptischen":7277,"aphor":7278,"egte":7279,"sstruktur":7280,"Ġversus":7281,"auptung":7282,"ĠUntertreibung":7283,"teske":7284,"weiten":7285,"weiter":7286,"ĠExistenzen":7287,"ĠbewÃ¤l":7288,"ĠfÃ¼hrten":7289,"ymbolische":7290,"ĠTheoriebildung":7291,"ateur":7292,"mÃ¶gliche":7293,"ĠJe":7294,"ĠJetzt":7295,"licherweise":7296,"ĠAbg":7297,"ĠAbneig":7298,"Ġgeschaffen":7299,"ĠZuge":7300,"ĠZuhaus":7301,"ĠZuschreibungen":7302,"ĠZucker":7303,"elebene":7304,"Ġmentaler":7305,"ordnungen":7306,"ĠProblemen":7307,"ĠProblemlÃ¶sungs":7308,"ĠProzessierung":7309,"Ġweitergegeben":7310,"Ġzusammenzu":7311,"Ġzusammensetzt":7312,"ĠzusammenhÃ¤ngt":7313,"gegenstÃ¤nde":7314,"ĠEigenes":7315,"Ġverwir":7316,"Ġverweist":7317,"Ġverweilen":7318,"Ġverwechseln":7319,"deutet":7320,"ĠGeistesarbeit":7321,"ĠGeistesmensch":7322,"ĠGeistesprodukt":7323,"Angenommen":7324,"Annahme":7325,"Anfangs":7326,"ifikation":7327,"sozi":7328,"angenden":7329,"Ġeinmalig":7330,"ĠKÃ¶rperschem":7331,"ĠHerz":7332,"ĠHerde":7333,"ĠDenker":7334,"ĠDenkform":7335,"ĠDenkarbeit":7336,"ĠDenkweisen":7337,"ĠDenkformen":7338,"astischen":7339,"astik":7340,"gleichen":7341,"gleichheit":7342,"zuspr":7343,"ĠSoft":7344,"igerweise":7345,"scheidend":7346,"Ġlebendigen":7347,"Ġlebensweltlichen":7348,"gewichte":7349,"gewiesen":7350,"Ġganzes":7351,"Ġgesteuert":7352,"Ġgesteigert":7353,"ĠIndividuation":7354,"Ġentspringt":7355,"Ġklaren":7356,"betÃ¤u":7357,"architektur":7358,"Ġgebraucht":7359,"Ġoffene":7360,"Ġoffenbar":7361,"Ġoffensichtlich":7362,"Ġoffenkund":7363,"riebenen":7364,"ĠNervenzelle":7365,"flanzen":7366,"gÃ¤nge":7367,"voller":7368,"gebend":7369,"Ġfestgehalten":7370,"ĠverÃ¤nderlichen":7371,"ĠTechnologie":7372,"ĠTechnologien":7373,"ĠÃ¼berholt":7374,"Dazu":7375,"Ġwichtiger":7376,"Ġausgegangen":7377,"ĠausgefÃ¼hrte":7378,"ĠHirngesp":7379,"ĠHirnrinden":7380,"ĠUmgebungen":7381,"ĠbloÃŁes":7382,"forderung":7383,"Ġselten":7384,"Ġselben":7385,"Ġneuronales":7386,"arkiert":7387,"ĠWortschatz":7388,"Ġfolger":7389,"Ġfolgend":7390,"ĠReizen":7391,"ĠReihenfolge":7392,"Ġherauszu":7393,"Ġherausstellen":7394,"Ġherausfinden":7395,"Ġkognitives":7396,"Manche":7397,"Manchmal":7398,"zwang":7399,"Ġabstrakt":7400,"Ġabstrakten":7401,"ontage":7402,"Ġirrt":7403,"ĠmÃ¶chten":7404,"ĠKlang":7405,"ĠKlarheit":7406,"ĠSchleife":7407,"Ġdaraufhin":7408,"Ġphysisch":7409,"Ġphysische":7410,"Ġphysisches":7411,"ĠÃ¤uÃŁerst":7412,"lÃ¤sst":7413,"Ġinhaltslos":7414,"ĠGeschÃ¤":7415,"Ġvermutet":7416,"ĠHandlungsfÃ¤higkeit":7417,"ĠHandlungsketten":7418,"ĠUrteilen":7419,"ĠUrteilens":7420,"ĠUnbestimmtheiten":7421,"dringen":7422,"drÃ¼cklich":7423,"slauf":7424,"slÃ¤ufig":7425,"slose":7426,"sleistungen":7427,"Ġemanzip":7428,"Ġdirek":7429,"Ġsymbolisch":7430,"tierung":7431,"gehÃ¶r":7432,"Ġglaubt":7433,"ĠverfÃ¼gbaren":7434,"ĠKonstrukte":7435,"Ġhervorgebracht":7436,"Ġexistierende":7437,"Ġmateriell":7438,"Ġmaterielles":7439,"ĠJahrhunder":7440,"ammelt":7441,"faÃŁ":7442,"phan":7443,"weilen":7444,"Ġaktiviert":7445,"Ġeinfache":7446,"Ġeinfachsten":7447,"Ġbiologisch":7448,"Ġbiologische":7449,"eterachie":7450,"ĠAlltag":7451,"ĠKÃ¼nstlers":7452,"ĠBetrÃ¼":7453,"ĠBetrachters":7454,"ternativen":7455,"Ġerweiter":7456,"Ġerfahrenden":7457,"Ġbedro":7458,"Ġbedingen":7459,"Ġjederzeit":7460,"Ġkonstruierten":7461,"Ġhinausgeht":7462,"Ġsprachliche":7463,"Ġsprachliches":7464,"geschlossenheit":7465,"Ġgeradezu":7466,"herseh":7467,"wirr":7468,"wirft":7469,"schluÃŁ":7470,"schlÃ¼ss":7471,"ĠAgencement":7472,"ĠAspekt":7473,"ĠKategorie":7474,"ĠKategorisierung":7475,"Ġfortgesetzte":7476,"Ã¤tzung":7477,"Ġentfaltet":7478,"Ġentfernte":7479,"Ġhineinversetzen":7480,"Ġhineingeboren":7481,"Ġhineinschauen":7482,"ĠEinzigkeit":7483,"ĠEinzeller":7484,"ĠLebensformen":7485,"ĠLebensjahr":7486,"Bedeut":7487,"VerstÃ¤ndnis":7488,"Verschiedene":7489,"diese":7490,"ohnt":7491,"ĠWerten":7492,"ĠBestimmungen":7493,"ĠEreignis":7494,"ĠInhalts":7495,"Ġstrukturell":7496,"Ġstrukturelle":7497,"ĠProdukt":7498,"Ġteils":7499,"Ġteilnahm":7500,"Ġteilzuha":7501,"Ġunterschiedlich":7502,"Ġunterschiedlicher":7503,"Ġgesellschaftlich":7504,"Ġgesellschaftliche":7505,"ĠBeschreibungsebene":7506,"Allein":7507,"Allgemeine":7508,"grenzte":7509,"streit":7510,"Ġunbekannte":7511,"Ġunbegrenzte":7512,"ĠvÃ¶ll":7513,"Ġziehe":7514,"Ġzieht":7515,"Ġziemlich":7516,"Ġzentrales":7517,"Ã¼len":7518,"ĠSequenz":7519,"arakteristisch":7520,"ĠBesonderes":7521,"ĠBesonderheiten":7522,"ĠParis":7523,"ĠParadig":7524,"Ġbefreien":7525,"ĠFluss":7526,"ĠFlÃ¼ss":7527,"ĠFluktu":7528,"ĠVerschw":7529,"ĠVerstandes":7530,"ĠGefÃ¼hle":7531,"echanismen":7532,"Ġsozial":7533,"Ġjenes":7534,"Ġgewisse":7535,"ĠSinnesinform":7536,"ĠMediateur":7537,"ĠgrÃ¶ÃŁte":7538,"ĠgrÃ¶ÃŁten":7539,"ĠgrÃ¶ÃŁeres":7540,"komme":7541,"kommnung":7542,"sternis":7543,"Ġweitestgehend":7544,"Ġnahm":7545,"Ġnotwendigerweise":7546,"Ġbricht":7547,"ĠkÃ¶rperliche":7548,"ĠkÃ¶rperlicher":7549,"ĠMitteln":7550,"ĠWidersprÃ¼che":7551,"ĠWidersacher":7552,"ĠWiderstreit":7553,"ĠDarwin":7554,"ĠDisziplin":7555,"ĠDiskret":7556,"ĠDissozi":7557,"Ġoperation":7558,"ĠAugenblicks":7559,"ĠabendlÃ¤ndischer":7560,"kanntem":7561,"mentale":7562,"nachlÃ¤ss":7563,"Ġautomatisch":7564,"ĠKohl":7565,"ĠKooper":7566,"ĠfrÃ¼hen":7567,"Ġverteilte":7568,"ĠRaums":7569,"ĠNacheinander":7570,"ĠNachricht":7571,"utzten":7572,"utzend":7573,"Ġeigentliche":7574,"ĠeigentÃ¼m":7575,"ĠBewegungsmuster":7576,"ĠVorstellungs":7577,"ĠVorstellungskraft":7578,"Ġproduzieren":7579,"Ġproduzierte":7580,"Ġgemeinhin":7581,"Ġgemeinsamen":7582,"ĠVerschaltungsmuster":7583,"bausteine":7584,"Ġdefinierte":7585,"ĠGelehrte":7586,"Ġgefasst":7587,"Ġgefragt":7588,"ĠFolgerichtigkeit":7589,"ĠVersÃ¶hnung":7590,"ĠSelbstmodells":7591,"ĠGesamt":7592,"Ġwissenschaftlich":7593,"ĠhÃ¶here":7594,"ĠEntscheidungstheorie":7595,"ĠEntscheidungstrÃ¤ger":7596,"ĠOrganisations":7597,"ĠOrganisationsstruktur":7598,"Ġhandelnden":7599,"Ġirgendw":7600,"Ġirgendein":7601,"Ġirgendwie":7602,"Ġobjektiviert":7603,"Ġobjektivierten":7604,"ĠAllgemeine":7605,"ĠMittelpunkt":7606,"Ausschlag":7607,"Darwin":7608,"Sprach":7609,"SpÃ¤te":7610,"ablen":7611,"kanntes":7612,"Ġendlose":7613,"Ġendlosen":7614,"ĠendgÃ¼ltig":7615,"ĠprÃ¤dik":7616,"ĠprÃ¤diktive":7617,"ĠQuellen":7618,"tismus":7619,"ĠGrad":7620,"ĠGravitation":7621,"ĠEindeutigkeit":7622,"ĠKompetenzen":7623,"ĠerwÃ¤chst":7624,"Ġerstenmal":7625,"probt":7626,"ĠRespekt":7627,"ĠBegeisterung":7628,"Ġauszugehen":7629,"ĠauszudrÃ¼cken":7630,"Ġauszuprob":7631,"ĠErgebnissen":7632,"ĠGestalten":7633,"menschliche":7634,"Ġreflektierenden":7635,"Ġphilosophieren":7636,"ĠKontingenz":7637,"ĠVoraussetzungen":7638,"Ġmaschinellem":7639,"ĠUnterscheidungen":7640,"ĠEmpfindung":7641,"ĠEmpfindungs":7642,"ĠÃ¤hnlich":7643,"ĠÃ¤hnliche":7644,"ĠÃ¤hnlichen":7645,"ĠÃ¤hneln":7646,"ĠÃ¤hnlicher":7647,"Entscheidungen":7648,"Entscheidend":7649,"Nichts":7650,"sloses":7651,"versuch":7652,"ÃĦsthetisches":7653,"Ġenergie":7654,"inearen":7655,"Ġaktuell":7656,"schreibende":7657,"Ġunvermittelt":7658,"Ġunvermei":7659,"Ġeingegeben":7660,"Ġzunehmender":7661,"ĠKreislauf":7662,"ĠKÃ¶rpern":7663,"ĠerklÃ¤r":7664,"Ġanzufangen":7665,"ĠZeugnissen":7666,"ĠTurings":7667,"ĠTuringmaschine":7668,"elbstÃ¤ndigung":7669,"Ġlokalen":7670,"Ġlokalisieren":7671,"Ġentscheidende":7672,"sprozessen":7673,"gangene":7674,"ĠInformationsverarbeitung":7675,"ĠInformationsgesellschaft":7676,"ĠInformationsaustausch":7677,"ĠUnbestimmtheitsspielraums":7678,"Vielen":7679,"ibil":7680,"seite":7681,"Ġdetail":7682,"Ġadap":7683,"ĠworÃ¼ber":7684,"Ġworaus":7685,"Ġworauf":7686,"Ġunmittelbare":7687,"tifici":7688,"Ġzerbricht":7689,"Ġmathematisch":7690,"ĠStimm":7691,"ĠStillen":7692,"ĠGerÃ¤u":7693,"ĠGeringste":7694,"Ġvernetzen":7695,"Ġvernichtet":7696,"ĠvernÃ¼nf":7697,"ĠDetermin":7698,"ĠForschung":7699,"ĠVerkÃ¶rperung":7700,"Ġletzte":7701,"ĠErscheinung":7702,"Ġstabiles":7703,"Ġtranszenden":7704,"ĠUnbekannte":7705,"ĠUnbekannten":7706,"ĠUnbekanntes":7707,"Ġpraktisch":7708,"geschriebenen":7709,"ĠhÃ¶chst":7710,"ĠSoftwarekunst":7711,"wissenschaftler":7712,"ĠKlassifik":7713,"ĠVerarbeitungsprozesse":7714,"fÃ¤hrt":7715,"Ġautonome":7716,"Ġautonomes":7717,"Ġschlechtes":7718,"Ġschlechteste":7719,"ĠWahrscheinlichkeits":7720,"ĠWahrscheinlichkeitstheorie":7721,"iefert":7722,"Ġunbewusst":7723,"Ġunbestimmte":7724,"Ġeingebunden":7725,"Ġmodifiziert":7726,"ĠSynthes":7727,"Ġinformiert":7728,"Ġindividuell":7729,"Ġkritisch":7730,"Ġkritische":7731,"Ġkritisiert":7732,"ĠAntwort":7733,"Ġhohe":7734,"Ġhofft":7735,"Ġerwartet":7736,"ĠImplemen":7737,"ĠImpul":7738,"prinzipien":7739,"ĠPlatz":7740,"ĠPlural":7741,"ĠPrinzipien":7742,"ĠRÃ¼ckzug":7743,"bedingte":7744,"ĠHinsicht":7745,"ĠHintergrund":7746,"ĠRechenmaschinen":7747,"Ġvorherigen":7748,"ĠSpekulationen":7749,"ĠAnwendungs":7750,"ĠAnwendbarkeit":7751,"ĠSelbstreferen":7752,"ĠKonnektoms":7753,"Ġresidiert":7754,"ĠÃĦhnlichkeiten":7755,"Ġeinzigartig":7756,"hafter":7757,"ĠÃľbertreibung":7758,"ĠKoppelung":7759,"ĠverselbstÃ¤ndigte":7760,"ĠverselbstÃ¤ndigten":7761,"ĠElements":7762,"Ġempfindet":7763,"Ġempfinde":7764,"Ġintelligent":7765,"Ġintelligenten":7766,"Ġintelligenter":7767,"ĠEinzelne":7768,"ĠAutomation":7769,"ĠGefÃ¼hls":7770,"Ġinterpretierenden":7771,"ĠKreises":7772,"Ġbedeutungslos":7773,"Ġbedeutungsvolle":7774,"Ġnarrativen":7775,"Ġnarratives":7776,"Neuronale":7777,"Stattdessen":7778,"atikalische":7779,"codes":7780,"edback":7781,"handlungen":7782,"rtum":7783,"winkel":7784,"Ġchao":7785,"ĠÃ¼brigen":7786,"Ġradik":7787,"Ġradikal":7788,"Ġunendlichen":7789,"Ġeinzuordnen":7790,"Ġeinzuholen":7791,"Ġmechanischen":7792,"ĠSachzwang":7793,"Ġkombinatorischen":7794,"Ġkennenlernen":7795,"artiges":7796,"ĠEssenz":7797,"Ġerlangt":7798,"Ġerlauben":7799,"Ġverwendeten":7800,"Ġbestimmenden":7801,"ausenden":7802,"ĠLuci":7803,"ĠLuhmann":7804,"ĠLernfÃ¤higkeit":7805,"ĠInstanz":7806,"ĠInstabilitÃ¤t":7807,"ĠPropositionen":7808,"ĠPropositionalen":7809,"ĠphÃ¤nomenalen":7810,"ĠphÃ¤nomenales":7811,"ĠSelbstbewusstseins":7812,"gerichtetes":7813,"Ġ[âĢ¦].":7814,"Ġprovoz":7815,"ĠfÃ¼hlte":7816,"Ġbegrenzten":7817,"ĠbeschÃ¤ftige":7818,"Ġhierarchischen":7819,"Ġverwandt":7820,"Ġverwandelt":7821,"Ġverwandeln":7822,"ĠDimensionen":7823,"ĠMerkmalskon":7824,"ĠTexte":7825,"Ġdiskret":7826,"ĠKoordinaten":7827,"Ġverschweigen":7828,"Ġverschwindet":7829,"Ġspezifische":7830,"Ġhistorische":7831,"ĠKognitionswissenschaft":7832,"ĠDefinitionen":7833,"Obwohl":7834,"SchlieÃŁlich":7835,"Zustand":7836,"ZustÃ¤nde":7837,"ZustÃ¤nden":7838,"ZusammengehÃ¶r":7839,"basierte":7840,"basierten":7841,"funktionen":7842,"wahrnehmung":7843,"Ġeliminiert":7844,"Ġunvorstell":7845,"Ġnormativen":7846,"ĠzukÃ¼nftigen":7847,"hrenbetÃ¤u":7848,"Ġhilflos":7849,"ĠWiedererkennen":7850,"ĠfehleranfÃ¤llig":7851,"ĠBelebung":7852,"ĠerschlieÃŁt":7853,"Ġerschrecken":7854,"bertÃ¤t":7855,"Ġanschauen":7856,"Ġanalysieren":7857,"ĠVarianten":7858,"ĠVariablen":7859,"ĠDurchbruch":7860,"ĠgehÃ¶ren":7861,"Ġgeeigneten":7862,"ĠPhasen":7863,"ĠPhantas":7864,"ĠZwischenrÃ¤ume":7865,"Ġobere":7866,"ĠTiteln":7867,"Ġleiden":7868,"ĠHauptaufgabe":7869,"ĠHierarchien":7870,"ĠalltÃ¤gliches":7871,"Ġkeinerlei":7872,"Ġepist":7873,"weisungen":7874,"Ġpoetischen":7875,"Ġpoetische":7876,"Ġparadox":7877,"ĠAusgangspunkt":7878,"ĠAusgangsmateri":7879,"ĠWahrnehmungss":7880,"Ġniedergeschriebenen":7881,"wegs":7882,"Ġwahrgenommene":7883,"ĠzusÃ¤tzlich":7884,"ĠzusÃ¤tzliche":7885,"Anders":7886,"ĠSignalverarbeitung":7887,"Ġfolgenden":7888,"ĠOperationalitÃ¤t":7889,"Ġintellektuelle":7890,"ĠGenerationen":7891,"ĠGenerierung":7892,"ohÃ¤rentem":7893,"ĠWerdens":7894,"Ġkomplett":7895,"ĠGesamtsystem":7896,"ĠGesamtsystems":7897,"ĠGesamtsubjekt":7898,"ĠDetails":7899,"ĠVerknÃ¼pfung":7900,"ĠKlassifizieren":7901,"ĠKlassifizierung":7902,"ĠBuchstabens":7903,"ĠursprÃ¼nglichen":7904,"ĠfortwÃ¤hrendes":7905,"Architektur":7906,"Artifici":7907,"Gleichzeitig":7908,"Ihre":7909,"fristig":7910,"leistung":7911,"Ġdynamischen":7912,"eigerung":7913,"schnitt":7914,"ĠeinflieÃŁen":7915,"ĠSÃ¤uger":7916,"ĠSÃ¤ugetieren":7917,"Ã¶hnliche":7918,"ĠGleichgewicht":7919,"ĠAssemblagen":7920,"ĠMachens":7921,"ĠKnuth":7922,"Ġflexibl":7923,"Ġfallen":7924,"ĠBildern":7925,"ĠBÃ¼chern":7926,"ĠBesitzer":7927,"Ġerfand":7928,"Ġverdanken":7929,"Ġvermittelt":7930,"Ġangewandt":7931,"rechter":7932,"ĠVerlag":7933,"ĠBeobachter":7934,"ĠBeobachtungen":7935,"ĠlÃ¤cherliche":7936,"ĠUnendliche":7937,"ĠErklÃ¤rung":7938,"ĠErklÃ¤rungen":7939,"ĠentÃ¤uÃŁert":7940,"ĠentÃ¤uÃŁerten":7941,"Ġimplementierte":7942,"ĠMappings":7943,"Ġsogenannten":7944,"Ġselbstvergessen":7945,"ĠSchweigen":7946,"ĠSchwierigkeiten":7947,"ĠStÃ¶rung":7948,"ĠStÃ¶rungen":7949,"Ġevtl":7950,"Ġeventu":7951,"ĠAnstrengung":7952,"ĠAnstrengungen":7953,"Ġpassiv":7954,"Informationen":7955,"Informatik":7956,"Ġkontemplativen":7957,"Ġkontemplative":7958,"Ġabsolut":7959,"Ġabsoluten":7960,"dimensionale":7961,"gorhythmus":7962,"ĠrÃ¼hm":7963,"ĠZeitbewuÃŁtseins":7964,"Ġprogrammieren":7965,"ĠProgrammiersprache":7966,"Ġgeringste":7967,"ĠHerausforderungen":7968,"ĠHerausforderung":7969,"Ġabstrahiert":7970,"Ġabstrahieren":7971,"Programmieren":7972,"lÃ¤sslich":7973,"Ġsubjektiver":7974,"ĠDarstellungen":7975,"ĠPotenzial":7976,"ĠSynchronisierung":7977,"ĠBegrÃ¼nder":7978,"ĠgrundsÃ¤tzlich":7979,"ĠBenutzerillusion":7980,"ĠHegels":7981,"ĠManuskript":7982,"Ġkontinuierlich":7983,"Ġkontinuierlichen":7984,"ĠRobotik":7985,"BloÃŁ":7986,"Blackmore":7987,"Netzwerk":7988,"Netzwerke":7989,"SEN":7990,"Systemen":7991,"beschrÃ¤nkung":7992,"figuration":7993,"gobernitz":7994,"kala":7995,"leitung":7996,"surabilitÃ¤t":7997,"sbeziehung":7998,"wÃ¼rfe":7999,"willigen":8000,"Ġtendenz":8001,"Ġdunklen":8002,"onnenes":8003,"Ġwachsenden":8004,"Ġunscharf":8005,"ĠunabhÃ¤ngigen":8006,"ĠunzusammenhÃ¤ngende":8007,"Ġzielgerichtetes":8008,"Ġzersetzen":8009,"Ġaugenblicklich":8010,"ĠAblÃ¤ufe":8011,"ĠAktuellen":8012,"ĠAdresse":8013,"ĠMitmenschen":8014,"ĠMarx":8015,"ĠMarkt":8016,"ĠKombination":8017,"ĠKombinationen":8018,"Ġfeste":8019,"Ġerneut":8020,"Ġerkenn":8021,"Ġverhindert":8022,"Ġverhindern":8023,"Ġverflochten":8024,"Ġverschleiert":8025,"ĠViren":8026,"ĠVollzug":8027,"ĠValÃ©rys":8028,"ĠDefizi":8029,"ĠDunkel":8030,"definit":8031,"ĠIrrtum":8032,"ĠPoetik":8033,"ĠPublik":8034,"ĠPubertÃ¤t":8035,"ĠPopulation":8036,"ĠPopulationen":8037,"ĠFesten":8038,"ĠFeedback":8039,"ĠFinalitÃ¤t":8040,"ĠFinsternis":8041,"ĠFehlern":8042,"ĠRÃ¤tsel":8043,"ĠRÃ¤tselch":8044,"ĠVerdraht":8045,"ĠVermisch":8046,"ĠVermute":8047,"ĠZweifeln":8048,"ĠTendenz":8049,"ĠTendenzen":8050,"ĠErzeugung":8051,"ĠErlebnis":8052,"ĠHÃ¶chste":8053,"ĠIngenieur":8054,"ĠIngenieuren":8055,"ĠIntentionalitÃ¤t":8056,"ĠÃ¼berprÃ¼ft":8057,"ĠÃ¼berprÃ¼fen":8058,"ĠÃ¼berraschender":8059,"ĠOntologie":8060,"ĠOntologien":8061,"Ġstarre":8062,"Ġselbstreflexive":8063,"ĠSchÃ¶nheit":8064,"Ġtypisches":8065,"Ġrekursiv":8066,"ĠSpeicher":8067,"ĠAnderes":8068,"Ġuntersucht":8069,"Ġuntersuchen":8070,"ĠpersÃ¶nliche":8071,"ĠpersÃ¶nlichen":8072,"Ġabgrenzbaren":8073,"ĠNaturgesetze":8074,"ĠEinschrÃ¤nkung":8075,"Ġrelativ":8076,"Ġrelevant":8077,"Ġtechnologisches":8078,"Ġmenschlichem":8079,"ĠAlternativen":8080,"Unterscheidung":8081,"ĠprimÃ¤r":8082,"Ġprimitiv":8083,"ĠIdealfall":8084,"ĠUrsachen":8085,"ĠUrsache":8086,"Ġverwirklichen":8087,"ĠHerstellens":8088,"ĠNeuronenverbindungen":8089,"ĠNeuronenverbÃ¤nden":8090,"ĠMetapher":8091,"Ġhervorzuheben":8092,"Ġhervorzubringen":8093,"ĠPartikelebene":8094,"Ġnahelie":8095,"ĠResultat":8096,"Ġqualitativen":8097,"Ġgrundlegend":8098,"Ġgrundlegende":8099,"Ġtransklassischen":8100,"Ġtransklassische":8101,"Ġsynthetischen":8102,"Ġsynthetische":8103,"Ġproblematisch":8104,"ĠÃ¶ffentlichen":8105,"ĠMusiker":8106,"ĠNotizbÃ¼ch":8107,"UrteilsfÃ¤higkeit":8108,"Ġunreflektierten":8109,"ĠKonvergenzzentrum":8110,"BEWUSST":8111,"GefÃ¼hle":8112,"Gemein":8113,"Modelle":8114,"MÃ¶glicherweise":8115,"Solange":8116,"Semantische":8117,"Werke":8118,"Welche":8119,"grÃ¼ndigen":8120,"kerungsschichten":8121,"kÃ¼nstlerischen":8122,"tuellen":8123,"zentration":8124,"Ġ90":8125,"Ġcodiert":8126,"erous":8127,"ĠdrauÃŁen":8128,"Ġdistanziert":8129,"unruhigen":8130,"Ġsorgt":8131,"Ġseltsame":8132,"Ġsignal":8133,"schlieÃŁend":8134,"Ġunklar":8135,"ĠungewÃ¶hnliche":8136,"Ã¤sthetischen":8137,"Ġnegative":8138,"ĠnÃ¼tzlich":8139,"ĠeinigermaÃŁen":8140,"Ġmindestens":8141,"Ġmodellieren":8142,"ĠmiÃŁverstanden":8143,"Ġmenschengemachte":8144,"Ġmikroskopischen":8145,"ĠSaurau":8146,"Ġkausaler":8147,"ĠkÃ¤me":8148,"Ġkartesischen":8149,"Ġzustande":8150,"ĠAssoziation":8151,"ĠMutter":8152,"ĠWÃ¼nsche":8153,"ĠWollust":8154,"ĠWillen":8155,"ĠKodierung":8156,"ĠBriefen":8157,"ĠerÃ¶ffnen":8158,"ĠgÃ¤nz":8159,"ĠverstandesmÃ¤ÃŁ":8160,"ĠverfÃ¤lschen":8161,"Ġverankert":8162,"Ġangesichts":8163,"Ġangereichert":8164,"Ġangemessen":8165,"ĠVektoren":8166,"ĠDirigen":8167,"ĠDynamik":8168,"ĠIntelligence":8169,"Ġgebildet":8170,"Ġgetrauen":8171,"Ġgezielter":8172,"ĠPerzeption":8173,"ĠPlÃ¶tzlichkeit":8174,"Ġaufgehoben":8175,"ĠFalle":8176,"ĠRÃ¤ume":8177,"ĠNewton":8178,"ĠNeigung":8179,"Ġmitzuteilen":8180,"ĠVergangenheit":8181,"ĠZerfall":8182,"ĠZyklen":8183,"ĠTransformation":8184,"ĠauslÃ¶st":8185,"ĠausgelÃ¶sten":8186,"ĠIndustrialisierung":8187,"Ġentsetzliches":8188,"Ġschrittweise":8189,"ĠzwangslÃ¤ufig":8190,"ĠProjektionen":8191,"ĠProgrammen":8192,"Ġselbstbewussten":8193,"Ġumfangreiche":8194,"Ġkeineswegs":8195,"ularitÃ¤ten":8196,"ĠSchwarm":8197,"ĠStrange":8198,"ĠStudien":8199,"ĠUnbewusste":8200,"ĠSelbstÃ¤ndigkeit":8201,"Ġkonsistente":8202,"ĠEntfaltung":8203,"ĠGehirnaktivitÃ¤t":8204,"ĠHandwerker":8205,"ĠUmkehrung":8206,"ĠVorkommnis":8207,"ĠErfahrungsbegriff":8208,"Ġexternalisiert":8209,"Ġjahrhundert":8210,"ĠSubjektivierung":8211,"Ġgleichzeitigen":8212,"ĠgewÃ¶hnlichen":8213,"Ġgegenseitige":8214,"ĠInterface":8215,"hypomnÃªmata":8216,"ĠFunktionsablÃ¤ufe":8217,"ĠFunktionslogik":8218,"ĠÃľbergangs":8219,"Ġmakroskopischen":8220,"ĠTeilhaber":8221,"ĠAbhÃ¤ngigkeit":8222,"Ġgesteigerte":8223,"Ġgebrauchen":8224,"Ġirritiert":8225,"Ġempha":8226,"Ġemotionalen":8227,"Softwarekunst":8228,"ĠgrÃ¶ÃŁtmÃ¶glichen":8229,"Ġgedanklich":8230,"ĠEinzelteilen":8231,"Ġdifferenziert":8232,"ĠParadoxon":8233,"ĠSinneseindrÃ¼cken":8234,"ĠSinneswahrnehmungen":8235,"ĠSinnesorgane":8236,"Ġbevorzugt":8237,"ĠVerschaltungsl":8238,"merkmale":8239,"Ġkompetenten":8240,"ĠDaseins":8241,"Ġberuhigen":8242,"ĠhÃ¶herstufiges":8243,"ĠprÃ¤zise":8244,"ĠSprÃ¼nge":8245,"ĠKomponente":8246,"Ġhochkomplexe":8247,"Ġsequentiell":8248,"Ġsequenziellen":8249,"ĠVerarbeitungsalgorithmus":8250,"ĠBuchstÃ¤bliche":8251,"ĠÃ¼brigbleibt":8252,"Ġwechselseitigen":8253,"Ġwechselwirkenden":8254,"Ġdezentral":8255,"Ġregulativ":8256,"Ġvermittelnden":8257,"ĠBedÃ¼rfnis":8258,"ĠUnverstÃ¤ndliche":8259,"ĠGrÃ¶ÃŁenwahn":8260,"ĠSchaltkreise":8261,"ĠExperimente":8262,"Ġresultierende":8263,"Ġelektron":8264,"Ġnumerische":8265,"ĠSpektrums":8266,"ĠevolutionÃ¤rer":8267,"Ġnachgeschalteten":8268,"Ġprobabilistische":8269,"Ġargumentiert":8270,"Ġanthropozentrischen":8271,"Adorno":8272,"Behauptung":8273,"DER":8274,"Forschung":8275,"GrÃ¼nde":8276,"Goffey":8277,"Hebb":8278,"Neumann":8279,"Philosophie":8280,"Rhythmus":8281,"Sollte":8282,"TatsÃ¤chlich":8283,"WÃ¤hrend":8284,"Wissenschaft":8285,"cault":8286,"habbar":8287,"iÃŁtra":8288,"nÃ¤ck":8289,"pansen":8290,"ttrib":8291,"vision":8292,"wÃ¤chen":8293,"Ġtierischen":8294,"Ġruhig":8295,"Ġorientieren":8296,"Ġtilgt":8297,"Ġordentlichen":8298,"ereien":8299,"ĠdÃ¼rfte":8300,"Ġdroht":8301,"Ġsitzt":8302,"Ġsperren":8303,"Ġsynaptischen":8304,"ĠunzeitgemÃ¤ÃŁ":8305,"Ġunzureichend":8306,"elementen":8307,"Ġeingeholt":8308,"Ġmysteri":8309,"Ġundifferenzierten":8310,"ĠSteu":8311,"ĠSklaven":8312,"ĠSelektion":8313,"ĠSELBST":8314,"Ġbeitragen":8315,"ĠbÃ¼rger":8316,"ĠbÃ¼ndeln":8317,"Ġbayesian":8318,"Ġinmitten":8319,"Ġinstrument":8320,"Ġindustrielle":8321,"Ġkatastroph":8322,"ĠGÃ¤nze":8323,"ĠGroteske":8324,"ĠGanzheit":8325,"ĠGlauben":8326,"ĠGalilei":8327,"ĠAktivierungsmuster":8328,"ĠAxiom":8329,"ĠMÃ¤chtigkeit":8330,"ĠMomente":8331,"ĠMinute":8332,"Ġheterogen":8333,"ĠhartnÃ¤ck":8334,"Ġhalluzin":8335,"ĠEffizienz":8336,"ĠWandler":8337,"Ġfundamentalen":8338,"Ġerfahrungs":8339,"Ġerhoben":8340,"Ġerzielt":8341,"berÃ¼hmtesten":8342,"individu":8343,"Ġverinnerlichen":8344,"Ġverfinst":8345,"atherine":8346,"Ġangelangt":8347,"ĠDangerous":8348,"ĠDressur":8349,"Ġgetrennten":8350,"Ġgezwungen":8351,"ĠgefÃ¼hlt":8352,"ĠPredictive":8353,"ĠPassivitÃ¤t":8354,"Ġbestehend":8355,"Ġbewertet":8356,"Ġauffallend":8357,"ĠFamilie":8358,"ĠFangens":8359,"ĠFoucault":8360,"ĠRufmord":8361,"ĠVervollkommnung":8362,"ĠVerwirklichung":8363,"ĠVerrÃ¼cktheit":8364,"ĠVermutung":8365,"ĠVerallgemeinerung":8366,"ĠZivilisation":8367,"ĠTatsache":8368,"ĠBeachtung":8369,"ĠBevÃ¶lkerungsschichten":8370,"Ġlautet":8371,"ilettan":8372,"ĠUtopie":8373,"beziehungen":8374,"ĠHochgobernitz":8375,"ĠHayles":8376,"ĠHalluzination":8377,"ĠHeidegger":8378,"ĠInkommensurabilitÃ¤t":8379,"ĠOhnmacht":8380,"ĠOffenheit":8381,"Ġallumfassend":8382,"ĠstÃ¤ndigen":8383,"Ġschmerz":8384,"Ġvorverarbeiteten":8385,"ĠSchauspiel":8386,"ĠSchimpansen":8387,"ĠSchwebe":8388,"Ġtopologische":8389,"Ġreflektiert":8390,"ĠUnmittelbarkeit":8391,"Ġevolv":8392,"ĠAntike":8393,"ĠAnnÃ¤herung":8394,"ĠplÃ¤diert":8395,"Ġpotentiell":8396,"ĠSelbstdarstellung":8397,"Einfache":8398,"Ġabzugrenzen":8399,"Ġabgestreift":8400,"ĠabschlieÃŁenden":8401,"ĠGehirnregionen":8402,"ĠUmgebende":8403,"ĠVorhandensein":8404,"Ġnachgeahmt":8405,"ĠEinbildungskraft":8406,"ĠLektÃ¼re":8407,"ĠGedankenstrÃ¶mung":8408,"Ġromanischen":8409,"Ġjenseits":8410,"Ġgewidmet":8411,"Ġgegenstandsbezogen":8412,"ĠGesagtem":8413,"ĠGesprochenes":8414,"Ġprozessu":8415,"ĠÃľbereinstimmung":8416,"ĠAugenblicken":8417,"ĠverlÃ¤uft":8418,"aphorisch":8419,"ĠZuhause":8420,"ĠProblemlÃ¶sungsverfahren":8421,"gewiesenheit":8422,"Ġoffenkundig":8423,"ĠHirngespinst":8424,"Ġemanzipiert":8425,"ĠJahrhunderten":8426,"ĠAgencements":8427,"ĠLebensjahren":8428,"Ġteilzuhaben":8429,"ĠFluktuationen":8430,"ĠSinnesinformationen":8431,"ĠKooperativitÃ¤t":8432,"Ausschlaggebend":8433,"SpÃ¤testens":8434,"Ġauszuprobieren":8435,"ĠKlassifikationen":8436,"ĠSyntheseleistung":8437,"ĠSelbstreferentialitÃ¤t":8438,"ĠLuciano":8439,"ĠMerkmalskonstellationen":8440,"ĠKoordinatensystem":8441,"ĠAusgangsmaterial":8442,"Artificial":8443,"Ġeventuell":8444,"ĠDefizite":8445,"ĠPublikum":8446,"ĠRÃ¤tselcharakter":8447,"BEWUSSTSE":8448},"merges":["e n","e r","c h","Ġ d","i n","u n","i e","s t","i ch","Ġ s","Ġ a","e i","e s","e in","o n","Ġ w","s ch","Ġ un","e l","t i","Ã ¤","Ġd ie","Ġ i","un g","a n","Ġ v","a s","Ġ n","Ġ ein","Ġd er","Ġ z","Ġ m","Ã ¼","g e","Ġun d","u r","a l","o r","g en","Ġ S","t e","Ġ b","Ġ in","l ich","i r","d er","Ġa u","Ġ k","e m","i t","Ġz u","h r","ei t","ich t","a r","d en","e t","Ġi st","i er","Ã ¶","Ġ G","Ġ A","Ġ M","Ġd as","Ġa l","Ġ h","Ġ E","ti on","Ġ W","Ġ K","Ġn icht","l e","t en","Ã Ł","Ġ f","s en","i s","e h","Ġ B","t er","sch en","r a","u s","m m","Ġ er","Ġ g","Ġv on","b er","in d","Ġw ir","b en","Ġv er","Ġs ich","a t","Ġa n","o l","Ġal s","i g","s e","Ġ V","Ġ D","d e","Ġ I","Ġ ge","en t","n en","p r","k en","el l","Ġd es","k t","Ġ P","Ġb e","Ġau f","Ġ F","Ġ es","Ġd en","Ã¤ n","a ch","u m","b st","Ġ R","D ie","j e","Ġein e","Ã¼ r","Ġun s","ung en","Ġs ie","Ġ N","a tion","Ġs ind","o m","Ġm it","r e","ĠV er","i schen","Ġ Z","Ġ o","Ġ T","el t","r o","n t","ur ch","el bst","ĠB e","Ġd a","Ġau s","k eit","Ġw er","Ġ l","a u","or m","i l","a hr","f t","Ġw ie","Ġwer den","Ã¼ ber","e u","Ġ U","b e","g t","ti v","Ġs ein","an d","an n","ĠE r","f f","ier t","ĠG e","Ã¤ t","i sch","Ġ H","ie l","Ġ L","h e","et z","c k","Ã¶ n","e hr","en n","Ġd urch","ĠI n","b je","Ġ ich","Ġ ent","r ei","Ġ Ã¼ber","Ġ O","Ġd em","ier en","Ġi hr","ei l","Ġn ur","Ġi m","Ġk Ã¶n","Ġdas s","k tion","ĠR e","Ġal l","o ch","r i","Ġf Ã¼r","ĠM en","Ġ st","m en","Ġs ch","Ġwir d","lich e","un st","lich en","Ġz w","Ġuns er","r u","on der","ĠP ro","er k","ĠM a","h al","ĠW elt","mm en","z u","Ġan der","o s","es ch","Ġau ch","o d","n is","e ch","Ġs o","Ġdie s","Ġv or","Ġo der","i gen","Ġs elbst","ei st","sch in","Ġ um","ĠkÃ¶n nen","er en","ĠK unst","it Ã¤t","n e","Ġein er","D as","z e","ung s","u t","o g","st eh","k tiv","er s","sch a","Ġ (","ra ch","h eit","ti g","en d","g lich","u ÃŁ","al e","Ġk ann","ĠD en","b t","y st","Ġm ehr","Ġh a","Ġk ein","is sen","yst em","u l","ĠS ch","i mm","Ġ t","r en","ti sch","ir n","ĠG eh","Ġh at","Ġ re","ĠS t","i st","isch e","Ġd ar","pr Ã¤","Ã¼ n","ol l","onder n","Ġw as","ĠU n","ĠMa schin","Ġs ondern","Ã¤ h","om p","al en","o p","ĠS p","Ġzw ischen","Ġ e","st he","ig keit","b ar","te t","â Ģ","ei gen","Ġz ur","ation en","ĠO bje","a m","ĠA n","ell en","ĠMen schen","h t","z i","Ġun ter","a us","Ġ je","er n","in n","Ġdie se","w ei","Ġ p","in g","ĠS elbst","Ġein en","u st","Ġ Ã¤","Ġw enn","el n","b l","f ahr","er t","Ã¶ glich","ĠDen ken","an g","Ã¶ r","I n","u ch","Ġi mm","f Ã¼","h en","a g","h Ã¤n","Ġm an","Ġimm er","i k","k te","z es","st imm","Ġein em","kt ur","âĢ ĵ","f orm","E in","u f","Ġk on","ĠK on","ĠGe d","Ġ eigen","Ġa ber","ĠE nt","Ġda ÃŁ","ri ff","g riff","h m","s p","Ġa b","at ur","Ã¤n d","scha ft","i ck","Ġ âĢĵ","ĠS ystem","ĠGeh irn","s ein","z en","st en","a b","Ġ et","l l","ĠA r","le x","le ich","prÃ¤ sen","n eh","un d","Ġm ein","Ã¼ s","Ġh in","ĠH and","E s","e ich","s pr","ĠU m","D er","d i","p er","sch ei","ĠF orm","ru ktur","Ġha ben","it t","ĠBe w","g or","b eit","ĠV or","Ġn ach","ĠÃ¤ sthe","ĠGed an","ÃŁ en","Ġ C","ch n","Ġwie der","a mmen","l er","z ie","sch ie","ĠN atur","el ch","us st","Ġet w","l ie","u bje","v er","ĠE in","Ġn och","Ġein es","al itÃ¤t","or t","z eu","st ell","as sen","al is","ier ung","ĠEr fahr","ĠL e","h l","Ã¤ ch","Ġzu m","w elt","ti schen","ĠGedan ken","Ġw elch","Ġb ei","h er","te chn","Ġh er","ĠW ahr","el le","ĠG eist","Ġg es","Ġihr e","e ur","Ġ le","Ġm Ã¼s","ach t","ĠGe gen","a ge","t eil","Ġ r","Ġ techn","lich keit","ĠA us","Ġnicht s","il d","s er","es en","ti k","Ġv iel","Ã¼ ck","ĠMen sch","Ġdies er","Ġe x","o mmen","Ġ Ã","en sch","un ktion","Ġs p","ge b","ĠPro zes","wei se","neh m","d u","g es","o t","st e","ĠW issen","steh t","Ã¤h igkeit","Ġetw as","f en","i en","Ġw ar","Ġn eu","ĠW erk","steh en","ĠErfahr ung","l os","al l","ĠSp rach","g er","g el","w ick","Ġm ich","ĠI ch","tisch e","ĠObje kt","d em","m al","w erk","Ġm ensch","ol og","Ġander en","ĠMaschin e","W ir","h n","i bt","en z","ĠZ eit","gor it","l ung","ge m","ĠM od","Ġunser e","Ã¼n st","schei d","eur on","Ġ j","st Ã¤nd","ti eren","Ġein z","ÃŁ t","Ġl ie","etz t","ĠIn form","prÃ¤sen t","g an","i z","n et","ĠS ubje","Ġb es","Ġ gen","ir k","Ġf orm","eh en","Ġkein e","h men","i on","r und","Ġ [","Ã¤ l","as s","ĠA l","ĠE n","Ġall es","w ar","Ġd ann","an z","Ġb l","Ġg ibt","ell igen","hal ten","ĠSt ruktur","ĠMaschin en","I m","b ei","i m","w er","st and","Ã¤ r","au f","Ġsein e","Ġihr er","ĠSprach e","g ra","p f","Ġg leich","bst ra","ff en","ul t","omp lex","usst sein","p t","ľ ber","Ġw eit","an der","Ġge w","Ġge gen","Ġge ht","ĠF Ã¤higkeit","ĠBe griff","ĠLe ben","W enn","ein ander","ĠG es","us ammen","ĠN etz","hal b","e st","sch ein","Ġals o","ĠIn ter","a ten","ich tig","Ġm ir","Ġbe stimm","Ã¤n der","ĠO r","ĠWahr nehm","I ch","g esch","h a","o mm","v or","in gen","Ġb er","be w","Ġeigen en","U n","h y","un den","Ġw Ã¤","Ġn ie","us s","Die se","he or","ĠUm welt","a gen","f ten","u ter","w end","Ġs ei","ĠS inn","Ġk l","ĠF unktion","ach en","schie den","ult ur","S ie","a tiv","b ind","Ġ pr","ben e","om en","nt nis","ĠRe prÃ¤sent","Ġha be","Ã¶r per","ĠmÃ¼s sen","Ġex ist","h il","h ne","m a","Ġw eil","Ġf Ã¼","Ġsein er","ĠEr ken","ech n","ĠAl gorit","E r","Ġs ol","Ġi hm","Ġv oll","et en","Ġbe g","nt elligen","fÃ¼ hr","ag te","sp iel","f in","i tion","p l","r Ã¤","y m","Ġ .","ei g","ti t","eit s","Ġer st","hal t","omp uter","ĠÃ ľber","r ie","w e","an den","ĠA uf","Ġge m","rei b","os op","ze ich","hÃ¤n omen","gan is","hil osop","i v","m it","er e","st ru","Ġw ahr","Ġin n","Ġin ter","de ut","iel l","Ġall er","uÃŁ t","ĠAr beit","ym b","a gt","i ge","ch en","Ġs agte","Ġm Ã¶glich","ĠW irk","at z","rei ben","ĠErken ntnis","ntelligen z","d ing","s s","s am","Ġm a","al t","Ġb et","Ġk omplex","ĠW ei","ĠB er","ra ft","at Ã¼r","ĠT heor","Ġunser er","scha ften","ĠBew usstsein","gra mm","en s","er v","an t","ig n","Die s","bl em","k l","r Ã¼","er halb","ti gen","Ġk Ã¼nst","ĠA u","ĠVer bind","Ġda mit","il l","Ġhat te","Ein e","ĠHand l","ĠC omputer","ĠSubje kt","Ã¤l t","hilosop h","a d","i du","o b","q u","in ge","Ġa m","Ġw issen","Ġzu s","ier te","Ġver l","ĠI ntelligenz","ĠN erv","Ġo hne","Ġl Ã¤","ĠObje kte","hÃ¤n g","d es","h nen","l au","s etz","Ġw o","ti ert","al er","ar beit","Ġal le","Ġf rei","Ġver schieden","at t","Ġden ken","ach te","ĠZ usammen","be stimm","Ġander e","ktiv itÃ¤t","gem ein","ĠWei se","f ol","k ten","r itt","t z","v idu","st ellen","Ġs inn","Ġb esch","ĠG rund","Ġh ier","Ġg el","ĠP ers","ĠT eil","ech en","Ã¶glich keit","di vidu","ĠÃ¤sthe tischen","Ġneu e","h Ã¤lt","o gen","s icht","Ġd och","Ġn atÃ¼r","Ġz eit","Ġh Ã¶","ĠI de","ell schaft","ĠP hÃ¤nomen","Ġbe zeich","ĠN euron","ĠkÃ¶n n","ĠPro gramm","Ġdies em","Ġzur Ã¼ck","eich en","uÃŁt sein","a p","b ild","e g","f all","l Ã¶","s st","ti ge","Ġv om","Ġm uss","ge hen","ĠE bene","ĠK op","ra um","Ġver s","ĠZ ust","au pt","Ġent wick","ktiv e","ĠUn ter","ust er","Ġtechn ischen","Ġeinz el","ĠWahrnehm ung","ĠAlgorit hmen","f lex","i tiv","s weise","t es","w eit","er m","et t","ĠE x","eh men","ra tion","Ġg er","ent r","Ġbe w","ro ÃŁ","ĠU r","ren z","zi p","Ġlie gt","ĠfÃ¼ hr","ymb ol","ĠWirk lichkeit","ĠTheor ie","a te","g ang","m Ã¶","m us","m itt","r Ã¶","v on","Ġ J","es ent","Ġi hnen","Ġin dem","lich er","ĠA b","ĠA bstra","ĠM Ã¶glichkeit","ĠK ultur","Ġg esch","ind et","ĠD aten","ĠD inge","ĠZ u","ĠInform ation","y n","Ġ -","el e","Ã¤ ten","Ġdie sen","Ġm ent","or d","it u","ĠK I","Ġg anz","Ġbe steht","Ã¤n de","ĠBe deut","Ġent steht","ĠPro blem","ĠEnt wick","ĠEnt scheid","ĠÃ¤sthe tische","Ġwelch es","ĠProzes s","Ġweit er","Ġzus ammen","h em","s el","ein t","an ge","ge gen","ĠE igen","Ġver w","de u","Ġdes sen","ĠRe alitÃ¤t","Ġsch on","og n","zie h","ĠGeist es","ĠWissen schaft","Ġmensch liche","ĠInform ationen","tit Ã¤t","hÃ¤ng ig","ĠAbstra ktion","A l","A n","i f","k r","o ÃŁ","o zes","s k","s o","t heit","v ol","Ġs ehr","ei ÃŁt","an gen","Ġein mal","ĠS ign","Ġb in","Ġb as","Ġb is","der t","ĠK Ã¶rper","ter i","Ġg ar","Ġver b","Ġden en","ĠZ eichen","ĠH er","od u","nis se","tig keit","ĠDen k","Ġe ben","ĠSystem e","schie d","zeu g","a st","g leich","m Ã¶glich","r em","z us","sch au","Ã¤ m","gen d","ĠS o","Ġk omm","Ġh eiÃŁt","le k","ĠB ild","ig er","ĠI den","ken nen","kt u","etz en","os ition","ĠKunst werk","uÃŁ en","Ġdar in","fahr en","schei den","Ġle ben","Ġbes onder",") .","A ber","a k","d och","g lichen","h in","p e","in gt","ich te","Ġw en","Ġw ur","Ã¤ uf","Ġm achen","ge w","hr end","ĠW esen","Ġer zeu","Ġg an","ind e","at s","ĠD i","Ġge st","eu te","ĠIn dividu","Ġent spr","imm t","lie ÃŁ","alis ierung","Ġges agt","ĠProzes se","los sen","ĠInter pr","hy s","Ġkl ar","ĠlÃ¤ sst","ĠNeuron en","hem a","B ei","a de","b et","c kt","f ach","h ang","y p","Ħ sthe","in den","st anden","Ġs oll","Ġau ÃŁ","ar ch","eh er","ĠB esch","Ġge b","ĠP hilosoph","ĠVer halten","Ġo ffen","Ġl Ã¶","il den","eu t","isch es","zu g","Ġdies es","uch t","Ġeigen e","ĠHand eln","zie hen","Ġj a","Ġbl ei","ĠOr ganis","ĠReprÃ¤sent ationen","Ġsol ch","rie ben","ĠNerv enz","Ġbezeich net","D enn","a um","f l","g Ã¤n","i olog","k e","k ommen","s atz","v oll","in zip","Ġa r","ge ben","Ġh and","Ġf est","Ġwir k","Ġver Ã¤nder","ĠF ra","ĠT echn","ĠÃ¼ber h","ktion en","Ġall en","ze p","ren zen","ĠGeh ir","Ġje doch","hm us","ab hÃ¤ngig","zie ht","lie ÃŁen","Ġmensch lichen","ĠMod ell","ĠFÃ¤higkeit en","Ġbet rach","ĠBedeut ung","D a","W as","e der","g a","o der","r Ã¼n","t r","en den","ie le","Ġs pr","es e","Ġw ichtig","Ġm acht","al ten","ĠA uÃŁen","ĠM et","ĠE m","ĠBe zieh","Ġda von","Ġaus ge","isch er","ĠH irn","Ġzw ei","ktiv en","ab il","ĠUm geb","Ġbl oÃŁ","Ġexist iert","ĠkÃ¶nn te","ĠKop f","flex ion","rem d","ats Ã¤ch","F Ã¼r","a hl","c ken","d ig","f or","f assen","w issen","z ogen","er nen","Ġd achte","un ft","Ġs el","ei gt","es onder","ein e","Ġw esent","Ã¤ ÃŁ","Ġn euron","Ġder en","Ġm uÃŁ","or en","lich es","Ġk ogn","em en","ar k","ĠE l","ĠW ort","Ġf ol","Ġer schein","Ġver stehen","ol le","ĠR ei","ĠT ier","Ġl assen","eren z","Ġre prÃ¤sen","ist enz","ĠBew uÃŁtsein","Ġher aus","ĠGegen stand","stÃ¤nd nis","bei tet","ĠwÃ¤ re","reib ung","ĠVerbind ungen","mÃ¶ gen","ĠInterpr et","ĠPhilosoph ie","ĠNervenz ellen","ĠÃ¼berh aupt","Ġkogn itiv","D urch","M an","e kte","i der","m ehr","p osition","u tion","z w","st itu","Ġa bstra","on t","Ã¤ ren","Ġi r","Ġi hn","as st","Ġm Ã¶","ier ten","ĠA ktivitÃ¤t","ĠM erk","ĠK l","Ġda bei","Ġent stehen","Ġihr en","Ġst att","Ġander es","rach t","ĠSch l","Ġdar auf","ĠUn bestimm","am bet","Ġp hys","ĠÃ¤ uÃŁ","ĠAr t","neh men","ĠÃ¤sthe tisch","stell ung","ĠMod elle","ass ung","war t","vol ution","ĠIden titÃ¤t","lieÃŁ lich","ĠUmgeb ung","ambet ti","P ro","f lek","l Ã¤","n ung","o k","o ten","u g","z t","un ehmen","gen bl","gen ommen","Ġin halt","ĠG esch","Ġer kennen","Ġver m","Ġbe griff","ĠR el","re ich","Ġo bje","Ġall em","od ell","Ġt atsÃ¤ch","ĠGegen satz","mal s","Ġgegen Ã¼ber","Ġber eits","ĠHandl ungs","ĠZusammen hang","fall s","ĠEx istenz","ĠUr teil","ĠInterpret ation","ĠUnbestimm theit","W ie","b r","d r","d urch","e fin","f Ã¼r","g eln","k ehr","n Ã¼","r it","r inde","s l","t ra","w o","x t","Ġ em","Ġd ir","un kt","Ġs ymbol","Ġw Ã¼r","Ġw oll","Ġun abhÃ¤ngig","ti er","an nt","ge h","ĠS ie","ĠG ambetti","ĠM e","ĠK raft","le ben","Ġf indet","eh ler","Ġg lau","ind ung","Ġver fÃ¼","ig it","Ġden n","be griff","ĠGe b","ĠRe flexion","Ġall gemein","Ġsch eint","ĠMa teri","ech sel","ut zen","Ġkein en","bar en","ĠKon stru","Ġmein en","Ġher vor","ot wend","Ġwar en","war e","ĠNetz werk","hy t","Ġexist ieren","fÃ¼hr t","Ġma ter","ĠBer eich","ĠPers on","hÃ¤lt nis","ĠPhÃ¤nomen e","Ġeinzel nen","ate gor","ĠJ ahr","Ġkomm t","Ã¤uf ig","S o","a mm","e zi","f a","f e","g ung","o ff","p h","r an","w eil","er st","Ġs ubje","Ġa ktiv","sch ung","Ġein fach","Ġm eist","ge g","Ġb iolog","Ġin s","et er","ĠG renzen","ĠA ll","ĠM uster","ĠE volution","ĠK Ã¼nst","ĠB et","ter n","ra uch","Ġer weit","Ġer fahren","Ġg rÃ¶","at hema","Ġge d","Ġge hen","Ġbe d","ĠN icht","ĠVer arbeit","Ġda zu","au t","ĠL eist","ĠL age","ĠO per","Ġzw ar","ru ck","Ġander s","ers eits","Ġt un","Ġje der","ĠDenken s","Ġkon stru","Ġkon kr","ll ig","Ġmein e","Ġhin aus","alis iert","Ġwelch e","Ġsp rach","Ġform alen","ĠStruktur en","Ġbestimm ten","gesch lossen","Un d","Un ser","ĠwÃ¤ hrend","ĠReprÃ¤sent ation","ĠHandl ungen","Ġger ade","ĠEntwick lung","Ġwur de","Ġerzeu gen","ĠauÃŁ erhalb","ĠAuÃŁen welt","genbl ick","D em","e kt","f Ã¤","h ers","h ese","r Ã¤n","w ir","y nt","Ġ eher","en de","Ġd eut","ich tet","es s","sch l","Ã¤ u","Ã¤ tigkeit","al y","or den","or ganis","Ġin t","eit en","ar e","ĠG en","ĠA gen","ĠA sp","ĠK ategor","Ġf ort","Ġver k","ig es","Ġo b","Ġda durch","Ġda fÃ¼r","au sch","eu g","ff assung","Ã¤t z","Ġent f","ze pt","og ik","ĠSp iel","ĠSystem s","Ġhin ein","Ġhin gegen","ĠEin z","ĠLeben s","ma ÃŁen","Ġinn erhalb","setz ung","ĠfÃ¼hr t","ĠEigen schaften","Ġgan ze","ĠlÃ¶ sen","Ġblei bt","Ġsel ber",") ,","A uf","B e","V er","d ie","h anden","i ÃŁ","k on","m odell","n a","o h","o se","r on","w ie","Ġ 1","un ter","Ġs agen","Ġw eder","Ġz eigt","it Ã¤ten","ar beitet","den ken","ĠA ut","ĠW er","ben d","pr och","pr ozes","ach e","Ġmit einander","ĠVer mÃ¶gen","ĠT e","ĠBe stimm","Ġda her","Ġl Ã¤n","Ġsein en","ĠEr eig","ĠIn halt","rei bt","rei fen","Ġall ein","Ġst ruktur","ĠPro du","ul iert","Ġt eil","bar e","Ġunter schied","ik ation","Ġkon stitu","spr uch","Ġges ellschaft","olog ie","scheid et","ĠBegriff e","Ġinn eren","ĠkÃ¼nst ler","Ġverb unden","ak ter","ĠBesch reibung","proch en","A ll","J e","K unst","b in","f ft","f Ã¤higkeit","g renz","k re","m uster","p p","s em","u b","w ier","Ġ ration","er ung","er ungen","ch t","Ġd i","Ġd is","st r","st Ã¤nde","Ġa bend","ei tig","ein en","on d","Ġw ill","sch e","Ġun be","Ġv Ã¶","Ġz ie","Ġz entr","Ã¼ l","ĠS e","te m","te xt","Ġb ilden","Ġb zw","Ġk ommen","em ent","ar akter","ĠG roÃŁ","Ġh eute","ĠW Ã¶r","Ġf unktion","eh t","ĠB esonder","Ġg roÃŁ","ĠP ar","Ġbe f","ĠF l","ĠF Ã¼r","Ã¤n den","om it","om bin","ĠVer sch","ĠVer stand","ĠVer hÃ¤ltnis","ĠGe fÃ¼","Ġunser en","ech an","Ġso zi","Ġdar Ã¼ber","Ġunter scheiden","Ġunter scheidet","Ġje dem","Ã¶r p","Ġkon n","Ã¤nd ig","ĠGehirn s","ĠHand lung","zeu ge","Ġtechn ische","ĠÃ Ħsthe","Ġj en","Ġbes it","Ġgew is","ĠGes ellschaft","Ġbestimm t","Ġnie mals","ĠSinn es","ativ en","we ck","ding s","ĠVerbind ung","ĠZust and","mitt el","if iz","odu z","ĠTechn ik","ĠGehir ne","dig lich","Ġerschein t","ĠtatsÃ¤ch lich","wo hl","Ġwoll en","ĠMe di","ĠgrÃ¶ ÃŁ","ĠFÃ¼r st","D en","h ol","i te","k omm","l Ã¤nd","¦ ]","st er","st ruktur","Ġw ei","Ġn a","Ġn otwend","Ã¼ ch","al d","al es","gen de","ĠS icht","Ġb r","Ġk Ã¶rper","icht en","ĠM itt","Ġh Ã¤t","Ġh Ã¤ufig","ĠW ider","Ġer mÃ¶glich","Ġg eist","Ġan ge","ĠD ie","ĠD ar","ĠD is","Ġo per","ff erenz","iel le","ri ft","Ġst ell","Ġst eht","men s","ĠMa ÃŁ","Ġvor aus","ystem e","Ġdar an","prÃ¤ ch","Ã¤h ig","âĢ ¦]","Ġje de","Ġje weil","ĠKon zep","ĠVor gÃ¤n","stell t","Ã¤ch t","Ã¤ch st","Ġle diglich","gel e","Ġgen au","ma schin","Ġsol chen","spiel sweise","rÃ¤ um","ĠAuf ga","iell en","ĠAu genblick","ĠAu ffassung","Ġverschieden en","ĠIde e","erm in","schau ung","flek tieren","ĠwÃ¼r de","ĠKonstru ktion","ran s","Ġged acht","ĠAsp ekte","Ġabend lÃ¤nd","ond on","ĠWÃ¶r ter","ite ktur","D ad","Q u","U m","a y","d ung","d igen","f te","k ann","l assen","l age","m ent","n ach","t s","z Ã¼","Ġd igit","in u","in ne","un dert","Ġs eit","Ġs ehen","ein d","on om","ti gt","an gt","Ã¼ tz","ur ing","al og","or r","ĠS im","ĠS inne","Ġau t","Ġk ultur","ĠA kte","ĠA ktionen","ĠK o","ĠK ri","Ġf rÃ¼","is mus","eh l","Ġver sch","Ġver teil","Ġver standen","at or","Ġge t","Ġbe vor","Ġbe deu","ĠR aum","Ġsie ht","ĠN ar","ĠN ach","ĠVer stÃ¤ndnis","ĠBe zug","ft ware","ĠRe gel","Ġsch le","ze ÃŁ","ut z","Ã¤h l","ĠObje kten","fÃ¼ ll","Ġeigen t","ĠForm en","ĠBew eg","ĠVor stell","Ġetw a","ĠWahr heit","ĠProzes sen","ges etzt","ĠEn sem","Ġgew esen","Ġbestimm te","ĠFunktion en","Ġpr oduz","pl iz","tit Ã¤ten","Ġgem ein","Ġkomplex e","ĠPers pe","sicht lich","ĠnatÃ¼r lichen","Ġentwick eln","ĠProblem e","ĠSign ale","Ġbas iert","Ġeben falls","Ġwen ig","Ġkognitiv en","Ġbegriff en","ĠRel ation","ĠverfÃ¼ gen","ĠvÃ¶ llig","ĠVersch alt","ĠermÃ¶glich t","Ġstell t","Dad urch","ĠKri tik","M it","a kt","b au","d et","g liche","g rund","h o","h Ã¶r","i ktion","i mmen","k unft","l ei","m erk","s ung","s spiel","w irk","Ġ us","Ġ Ã¤nder","en nen","en nt","ch ron","ch itektur","Ġd ien","Ġd efin","un Ã¤chst","Ġs agt","es sen","Ã¤ um","Ġi de","as is","Ġn un","Ġn Ã¤m","Ġk omp","ar t","ar tes","ier e","ĠG el","ĠM on","ĠK ind","le icht","sen t","ĠB asis","ra k","ra tiv","us ion","ben en","at a","ĠD as","Ġge f","pr e","ĠP oten","ĠF ol","ĠR hyt","ĠVer s","ĠBe ding","Ġl ang","Ġunser em","hal te","Ġvor handen","ungs k","ul ieren","ĠSch rift","ist anz","Ġdar um","bar keit","ĠSelbst modell","uch en","ik al","ĠGed Ã¤cht","sp w","ĠVor hers","ĠLe bew","hl en","Ġwelch em","Ġbei m","Ġviel en","Ġviel mehr","Ġneu en","gorit hmen","Ġlie gen","Ġform ale","ĠEn de","ĠEn titÃ¤ten","ĠGes am","Ġber u","ĠFunktion sweise","fin den","Ġgem acht","iv e","Ġinter nen","Ġinter pre","Ġkomplex en","ĠBer echn","ĠkÃ¼nst liche","Ġwissen schaft","ĠhÃ¶ her","Ġeinzel ne","Ġment ale","ĠEntscheid ung","Ġwen iger","ĠOrganis ation","Ġhand eln","Ġwirk lich","ĠverÃ¤nder t","Ġbetrach tet","Ġspr echen","ĠBezieh ung","ĠreprÃ¤sen tieren","Ġir gend","ĠÃ¤sthetisch er","Ġobje ktiv","Ġmeist en","ĠAll gemein","ĠKÃ¼nst ler","ĠLeist ungen","Unser e","ĠKategor ien","Ġgewis ser","ĠMitt el","mens ion","ĠnÃ¤m lich","ĠGedÃ¤cht nis","ĠLebew esen","A us","D ar","D am","N ach","S p","a ben","a men","a bl","e ben","f ern","f ang","f remd","g ie","h irn","k annt","p fen","p unkt","s etzt","w or","z usammen","z entr","Ġ end","Ġ prÃ¤","Ġ Ã¤h","Ġ Qu","ch nen","Ġd ort","st immen","Ġs omit","ei le","Ġun mÃ¶glich","el te","ti s","Ã¤ ter","Ġv iele","al ter","or te","ĠS pr","ĠS yn","Ġb en","der n","eit ern","ĠG ra","ĠA ust","ĠE ind","tion en","ĠK omp","ĠK ant","is ierung","ĠB ei","ĠB uch","Ġer w","Ġer sten","Ġg ut","ĠD ingen","Ġge ben","Ġge ha","pr o","pr odu","ell er","Ġbe we","Ġbe ziehen","Ġbe geg","Ġden kt","ach ten","ĠR es","ĠR ation","Die ser","ĠN eu","ĠZ iel","ĠZ weck","ĠBe g","Ġaus zu","Ġl ernen","ahr nehm","ĠEr geb","ĠGe st","Ã¤t ze","ĠL ogik","etz e","ri st","men sch","Ġsch lieÃŁlich","Ġum ge","ĠSch ritt","Ġre flektieren","ist ischen","Ã¼n d","Ã¼n f","igkeit en","Ġp hilosoph","ĠKon t","ĠSystem en","ĠVor aus","ĠC h","usst e","ild et","Ġsp ezi","stÃ¤nd ig","wer ken","ĠWahrnehm ungen","ha ft","bew usstsein","ativ e","fÃ¼hr en","rÃ¤ ger","iv ers","Ġaller dings","sam keit","Ġma schin","rÃ¼ ckt","Ġverschieden e","ĠZusammen hÃ¤n","ĠnatÃ¼r lich","ĠkÃ¶nn ten","bild ung","lÃ¶ tz","Ġvers ucht","ĠUnter scheid","ĠUnter schied","ĠfÃ¼hr en","ĠZu kunft","Ġment alen","Ġbis her","ĠIndividu um","Ġsolch er","ĠFra ge","ĠEm pf","ĠBezieh ungen","Ġabstra kte","ĠUnbestimmtheit sspiel","Ġerweit ern","Ġkonkr eten","na hm","kre te","Ġus w","Dam it","ĠÃ¤h n","ĠAust ausch","Ġgeha bt","E nt","N icht","a ktion","e tisch","f st","g st","g ungen","n immt","o le","o zi","p ut","r enn","s los","u te","v ers","w ort","w Ã¤r","z eit","z eitig","Ã ©","Ã ľber","Ã Ħsthe","Ġ en","Ġ qu","en te","er er","in e","Ġa ktu","on st","sch reiben","Ġun ver","el s","Ġn ehmen","Ġn utzen","Ġein ge","Ġz unehmen","ur s","ur en","al te","or ie","ĠS atz","ĠS ymbol","Ġk aum","Ã¶ ren","ĠA re","Ġh och","ĠK rei","ĠK Ã¶rp","Ġf al","Ġf inden","ĠB l","ra mm","Ġer kl","Ġg il","Ġver st","Ġver arbeitet","Ġan zu","ĠD enn","Ġdes halb","Ġbe stehen","Ġauf einander","ĠF iktion","ach sen","re ie","ĠVer n","ĠZ ellen","ĠZ ahl","ĠZ eug","Ġo ft","ĠT Ã¤tigkeit","ĠT uring","elbst Ã¤ndig","Ġwer de","Ġl og","Ġl ange","Ġl ok","Ġent scheiden","rei ft","ĠRe de","ĠRe geln","ri fft","Ġst ehen","Ġst ark","Ġunser es","Ġander er","nis sen","ech nen","ĠSch reiben","ĠAn schauung","wei f","wei sen","ing er","ĠSelbst ges","form en","ll usion","ĠAr chitektur","spr ozes","Ġwieder um","ĠEin heit","alis mus","Ġwelch en","Ġle icht","Ġsp Ã¤ter","ĠWerk zeug","gel Ã¶","ĠMod us","gan gen","ĠOr d","ĠAlgorit hmus","Er st","eig net","reib ungen","ymb ole","ĠlÃ¤ ÃŁt","fol gen","ĠGrund lage","ĠnatÃ¼r liche","Ġzeit liche","ĠIde en","ĠZust Ã¤nde","Ġentwick elt","ĠMÃ¶glichkeit en","ĠInformation s","yn am","Al gorithmen","sk raft","Ġentspr icht","ĠVerhalten s","Ġbetrach ten","ĠEl emen","ĠmÃ¶ glichen","ĠMerk m","Ġphys ikal","ĠGesch ichte","Ġsymbol ischen","Ġbiolog ischen","ĠBet racht","Ġkonstru ieren","Ġdeut lich","ĠAgen ten","prozes se","ĠEreig nisse","ĠProdu ktion","Ġgesellschaft lichen","ĠGroÃŁ hirn","Ġkonn te","Ġwei ÃŁ","gele gt","Ġbedeu tet","wirk ungen","Ġdien en","ĠFol ge","Ġgewisser maÃŁen","Ġbegeg nen","ĠUnbestimmtheitsspiel raum","Ġgil t","ĠGroÃŁhirn rinde","D ab","M a","R e","T echn","V iel","W ar","f angen","f asst","g r","h undert","i b","k urs","l ose","m ata","n Ã","n er","o ÃŁen","p ft","r inzip","s ei","s inn","w Ã¤","w ischen","ª mata","Ġ ,","Ġ 2","er nt","er gie","Ġd u","Ġd et","Ġd est","in der","un ikation","ie der","st att","ich er","Ġs e","Ġa d","es se","Ġw or","Ġun mittel","el ten","ti f","an zen","Ġn immt","Ġein deu","Ġz er","Ġm athema","ĠS ti","Ġb eh","Ġb ald","Ġb spw","it er","Ġzu gleich","eit er","ar i","et s","Ã¶ ff","ĠG er","ĠA kt","ĠE benen","ĠW ir","ĠK omplex","ĠK orr","Ġf assen","us sten","Ġg ro","Ġg rund","Ġver n","ĠD et","kt om","Ġbe deut","Ġbe ob","Ġbe zogen","ĠF or","ĠF rei","ĠF ort","ĠF all","um ent","om nÃ","ĠVer k","ĠVer stehen","ro chen","Ġl etz","ĠEr f","ĠEr schein","ĠEr wart","ĠL ernen","ĠIn halte","Ġent standen","Ġihr em","ĠkÃ¶n ne","Ġst ellen","Ġst abil","Ġst ets","men schen","Ġsch wier","ĠPro zeÃŁ","zu stellen","Ġander n","ne ktom","Ġmehr ere","Ġt rans","ist isch","ĠUn be","sthe orie","zi ge","Ġje des","Ġp rak","ust ern","In dem","ĠKon zept","sten s","Ġmein er","Ġmein em","ĠGedan ke","ler nen","alis ieren","ĠWahr schein","ĠmÃ¼s sten","ĠmÃ¼s ste","teil en","ĠAus d","ĠAus s","ĠWerk zeuge","gem Ã¤ÃŁ","ĠSubje ktivitÃ¤t","Ġbes ser","Ġgleich en","gesch rieben","bew uÃŁtsein","ĠwÃ¤ ren","ativ itÃ¤t","Ġvoll zieht","Ġbeg reifen","fÃ¼hr ung","ss ozi","ĠBewusstsein s","ens ystem","Dies es","ĠhÃ¶ ch","ĠProgramm ierung","Ġgesch ie","ĠEntscheid ungen","Ġbas ieren","zus agen","ĠSo hn","ĠSo ftware","Ġentspr echen","Ġsolch e","ĠGehir nen","oder ne","ĠMet ho","ĠHirn rinde","wissen schaft","Ġwesent lich","Ġwesent liche","ĠRei ze","ĠTier e","ĠreprÃ¤sen tiert","ĠBewuÃŁtsein s","ĠKl ass","Ġverm ag","ĠUrteil skraft","rit te","Ġglau be","ĠVerarbeit ung","ĠVerarbeit ungs","ĠOper ationen","fÃ¤ hr","rÃ¤n k","wir ken","aly se","ĠBestimm ung","Ġzie hen","ĠgroÃŁ e","maschin e","Ġaut onom","Ġschle ch","fÃ¼ll t","ĠVorstell ungen","Ġgemein sam","ĠSchrift stell","ĠBerechn ungen","ĠEind ruck","ĠBei spiel","ĠBuch st","ĠCh arakter","ĠDenn ett","ĠSelbstges prÃ¤ch","Dab ei","Ġgro ÃŁen","omnÃ ªmata","ĠWahrschein lichkeit","I st","N ur","V on","W ichtig","a il","a hn","b ilden","c e","d iert","e kten","f Ã¤l","f erenz","h eren","i zi","l ungen","l ark","m ut","o x","o de","o fst","s ol","t ritt","u d","u ten","w as","z unehmen","z Ã¤hl","Ġ Ċ","Ġ ur","in nen","in ation","ie f","ie s","ich tige","Ġs etzt","Ġs Ã¤m","Ġs ynt","Ġs onst","Ġa g","es c","sch t","sch ritt","sch lieÃŁlich","Ġun ge","Ġun bew","Ġun bestimm","el ie","Ã¤ f","Ġi den","an k","as ser","Ġn ar","Ġein geb","Ġein zige","Ġz unÃ¤chst","Ġm od","al s","gen z","ĠS u","ĠS ynt","ĠS ymbole","te fa","te gr","Ġb ein","Ġb ildet","Ġin form","Ġin dividu","Ġau ÃŁen","Ġk ri","em e","em an","Ġzu t","ar d","ar f","den z","ier bar","ier arch","Ã¶ pf","ĠA d","ĠA nt","Ġh o","Ġh yp","ĠW echsel","ĠK omm","ĠK inder","le gen","ten tion","Ġf remd","Ġf Ã¤hig","ĠB en","Ġer ste","Ġer war","ind ungen","at ast","ĠD istanz","de ckt","ĠI m","ĠI llusion","ent ale","pr inzip","ĠP l","ĠP ol","ĠP rinzip","ĠF ehler","Ġes sent","ĠR Ã¼ck","ĠR olle","re icht","ĠVer b","ĠT renn","Ġaus geschlossen","Ġaus schlieÃŁlich","be ding","Ġsein es","ĠH in","etz ung","ĠÃ¼ber t","ĠRe chen","Ġst eu","Ġsch Ã¶n","Ġsch reiben","Ġsch reibt","ru ch","ech end","Ġvor her","Das s","ungs muster","ktiv itÃ¤ten","heit en","Ġhat ten","Ġre den","Ġre ag","Ġre alisiert","ĠSp e","ĠAn s","ĠAn wend","ĠAn spruch","ĠSelbst re","ĠSelbst organis","ĠSelbst kon","ĠKon text","ĠKon nektom","ĠEnt steh","ĠAr tefa","Ġhin sichtlich","eich ern","eich ert","beit en","ĠC od","lie ÃŁt","ĠErfahr ungen","elle ktu","Ġges p","ĠmÃ¼s se","ĠGegen wart","ĠGegen stÃ¤nde","Ġr es","Ġr ein","Ġr Ã¤um","Ġtechn isch","Ġviel leicht","ĠÃ Ħ","Ġsp iel","ges prochen","ĠObjekt s","olog ischen","hn ung","Ġj etzt","stÃ¤nd lich","Ġeinz ig","Ġeinz eln","Ġgew orden","Ã¤nder ungen","ĠOr t","ha f","Ġsei en","Ġkl ass","Ġvoll stÃ¤ndig","ĠÃľber t","ĠÃľber zeug","we der","ĠAuf merk","Ġkomplex er","kl Ã¤r","ad ter","qu enz","setz en","fol ge","Ġsinn voll","sicht en","Ġbezeich nen","ĠKop p","Ġvers elbstÃ¤ndig","ĠEntscheid ungs","Ġeben so","ĠKunstwerk s","Ġbesonder en","Ġwur den","Ġgest alten","Ġblei ben","Ġar beiten","Ġhand elt","ĠverÃ¤nder n","ĠFra g","abil itÃ¤t","Ġneuron alen","ĠEl ement","ĠSchl Ã¼s","Pro position","Ġinhalt liche","kehr t","nÃ¼ pft","rit ten","tra gen","Ġem pf","ĠGeb rauch","ĠNetzwerk e","Ġmater iellen","amm lung","Ġint elligen","ĠEinz el","ĠAut om","ĠkÃ¼nstler ischen","grenz ung","ĠGefÃ¼ hl","Ġsozi alen","Ġbesit zen","Ġbr ingen","ĠhÃ¤t ten","ĠVorgÃ¤n ge","ĠAufga be","ĠSim ondon","Ġverteil t","ĠNar ration","Ġproduz iert","ĠPerspe ktive","ĠRhyt hmus","Ġinterpre tieren","ĠRation alitÃ¤t","Ġumge kehrt","Ã¼nd igkeit","nahm e","ĠKrei s","ĠKÃ¶rp ers","Ġerkl Ã¤ren","ĠOrd nung","Ma schin","Ġdest o","Ġbedeut ungs","ĠFrei heit","ĠAusd ruck","Ġgeschie ht","rÃ¤nk ung","ofst adter","ĠsÃ¤m t","Ġnar rativ","ĠKomm unikation","atast ro","Ġessent iell","ĠTrenn ung","ĠSelbstorganis ation","ĠAufmerk samkeit","A uch","C lark","D och","F orm","M entale","N euron","S t","S elbst","S ysteme","[ âĢ¦]","a ter","a tisch","a tik","a ffen","b rochen","c od","e d","e tischen","h and","k el","k ri","k Ã¼nf","m Ã¤ÃŁ","n o","o sen","o lek","r t","r y","r un","w in","x i","y ber","Ġ ch","Ġ Ã¼","Ġ ra","Ġ prÃ¤sen","en kt","Ġd rei","ie ur","ie gel","st ren","st uf","Ġs ug","Ġs ub","Ġa bl","ei b","Ġw echsel","Ġun end","as i","Ġn ennt","Ġein zu","Ġz eich","Ġm echan","Ã¼ st","Ã¼ le","ĠS ach","te ten","Ġb eher","Ġin tegr","ir ne","der ung","der ungen","Ġk ombin","Ġk ennen","em bl","it z","ar en","ar tig","et tet","ier ungen","Ã¶ pfen","ĠG an","ĠG rÃ¼n","ĠM athema","ĠM iÃŁ","ĠM ustern","Ġh eu","Ġh ist","ĠE s","ĠW ert","ĠK re","ĠK ogn","le b","Ġf ehl","ter e","ra gen","Ġer l","Ġer inn","Ġer lau","Ġer leben","Ġg ab","Ġver ab","Ġver wend","ig t","ĠD u","ĠD efin","ell es","kt or","Ġbe zieht","Ġbe stimmen","Ġauf grund","om an","om ent","ĠVer mitt","ĠT o","ĠT ag","ĠT hema","ro ffen","au sen","au fen","il ie","Ġsein em","ĠEr weit","ĠGe w","ĠH e","ĠH il","ĠH yp","ĠL u","ĠL Ã¶","ĠL ern","ĠL iter","ĠIn st","ĠIn str","Ġent zieht","Ġent weder","ieren den","Ġim pliz","ri b","ri gen","Ġsch wer","Ġsch lieÃŁen","Ġsch lÃ¤","Ġsch eitern","ru pp","ĠPro position","Ġander erseits","os itiv","ech s","Ġso wohl","Ġso zusagen","Ġum fassen","ĠKunst begriff","og ramm","ers on","ers etzung","rach e","ĠSch ein","ĠGeh alt","Ġre du","Ġre chnen","ĠSt and","Ġdar f","Ġdar aus","ĠUn ivers","bar es","ĠAn alyse","zi pl","Ġje den","inn erungen","Ġp hÃ¤nomen","ĠSelbst bewusstsein","bl es","Ġeigen es","ĠEnt fremd","Ġet c","ĠAr ten","ĠUm gang","Ġwieder hol","ver arbeit","ver stÃ¤ndnis","Ġbei spielsweise","Ġges am","Ġle gt","Ġr ichtig","ĠAus einander","ĠAus fÃ¼hrung","Ã¼ck e","Ġex ter","ges ehen","ot t","ĠWissen schaften","ĠWerk e","ĠWerk s","ger ichtet","ĠIch s","prÃ¤sent ationen","iz ieren","Ġgen ommen","Ġform uliert","Ġ[ âĢ¦]","wer dung","Ã¤r ken","ĠNetz werken","Ġkl ein","Ġpr o","ĠfÃ¼ hl","Ġvoll kommen","Ġbeg renz","pl emen","rÃ¤ fte","Ġwahr schein","Ġwahr nehmen","Ġinter ne","alt ung","ant wort","rÃ¼ cken","ĠkÃ¼nst lichen","ĠNerv ensystem","Ġwo hl","Ġsinn liche","Ġbesch reiben","Ġbesch rieben","Ġbesch Ã¤f","Ġhier arch","ĠhÃ¶ heren","ĠPhÃ¤nomen en","ap ier","esent lich","Ġgesch lossen","ord nen","Ġverw and","Al s","ĠSign alen","zus ehen","Ġkomm un","Ġbesonder s","Ġerzeu gt","Ġgan zen","ĠDi mension","ĠIndividu en","Ġsoll te","ĠauÃŁ er","Ġgeb unden","Ġgeb racht","Ġoffen en","ĠHandeln s","Denn ett","Ġfest gelegt","Ġspr icht","Ġausge fÃ¼hrt","wissen schaften","Ġfol gt","Ġerschein en","ĠMerk mal","ĠSchl uss","reich en","nÃ¼ pf","Ġdir ekt","Ġglau ben","Ġmater ielle","ĠJahr hundert","Ġsprach lich","schl ag","aly s","Ġfort wÃ¤","Ġverk nÃ¼pft","eug ier","Be w","ĠTe x","ĠlÃ¤n gst","Ġstruktur iert","Ġdi ent","Ġdis kr","Ġzentr al","Ġjen e","ĠMedi en","komm t","ĠDar stellung","Ġoper ieren","Ġjeweil s","ĠabendlÃ¤nd ische","ĠKo ord","Ġversch w","Ġeigent lich","ĠEnsem bles","hÃ¶r t","ĠÃ¤nder n","Ġdefin iert","ĠVorhers age","zusammen hÃ¤n","produ ktion","Ġspezi f","ĠZusammenhÃ¤n ge","ĠUnterscheid ung","ÃĦsthe tische","Ġzunehmen d","ĠSymbol en","ĠBl ick","ĠVern unft","gelÃ¶ st","ĠMerkm ale","Viel mehr","War um","Ġdet ermin","Ġunmittel bar","ĠKomplex itÃ¤t","ĠErf indung","esc artes","Ġhyp omnÃªmata","ĠWechsel wirkungen","Ġreag ieren","ĠSelbstkon zept","ĠsÃ¤mt liche","yber ne","ĠMathema tik","Ġhist or","ĠKogn ition","ĠDefin ition","ĠHyp ot","ĠLiter atur","ĠschlÃ¤ gt","zipl in","ĠEntfremd ung","C H","E ben","G er","G eh","H ier","H and","L aut","N S","O b","O hne","S ch","S inger","W esentlich","Z ust","Z usammen","a ck","a ktionen","b as","b le","c i","d as","d liche","d rÃ¼ckt","f er","f unktion","g ibt","g reifen","i x","k ind","k ro","l ungs","l agen","m acht","o ben","r icht","r ang","s Ã¤tz","s fÃ¤higkeit","s icher","t Ã¤","v en","w ert","w ahrnehm","x is","z ahl","z weif","Ġ '","Ġ el","Ġ ont","er lich","er ten","er ken","er kennen","Ġd e","in st","Ġs age","Ġs im","Ġa k","ei m","Ġw ider","Ġun vor","Ġun unter","el be","el ationen","Ã¤ ll","Ã¤ renz","an ten","an ent","Ġn Ã¶","Ġn orm","Ġn Ã¤h","Ġn atur","Ġn Ã¤ch","Ġn eur","Ġz eigen","Ġz erst","ge st","ge fÃ¼hrt","ur t","ur z","al k","al tet","al itÃ¤ten","al Ã©","or gen","ĠS ache","ĠS Ã¤tze","te gra","Ġin f","lich t","Ġzu kÃ¼nf","hr en","icht ung","et was","ĠG run","ĠA ktion","ĠM ein","ĠM an","ĠM oment","Ġh Ã¤n","Ġh il","ĠE ing","ĠW il","ĠW elle","ĠW orte","ĠW ieder","Ġf ehler","is u","ĠB ele","ĠB indung","ter ation","ra xis","Ġer sch","Ġer halten","Ġer fol","Ġer hÃ¤lt","Ġer fÃ¼llt","ber t","Ġver steht","Ġver tritt","Ġsich er","Ġan schau","Ġan fangen","Ġan statt","Ġan alys","ĠV ari","ĠD o","ĠD el","ĠD urch","ĠI teration","Ġge h","Ġge kommen","Ġge eignet","Ġge hÃ¶rt","ĠP h","ĠP raxis","ĠF re","Ġden ke","Ġmit t","ĠZ uf","ĠZ wischen","Ġo ber","ĠT on","ĠT it","ĠT eile","ro tz","Ġl ei","Ġl im","ff izi","iert es","ĠH aupt","ĠH ard","ĠH ierarch","etz te","ehr t","Ġent deckt","Ġall tÃ¤","Ġst immt","Ġsch n","Ġzw eiten","zu sch","ech net","Ġso wie","Ġvor stellen","ut put","scha ffen","tig ung","Ġkein er","ul ation","Ġt ut","Ġre g","Ġre flex","ĠSt at","ĠSt off","Ġe p","aus o","wei s","wei te","Ġp o","Ġp ar","Ġp erm","Ġp lÃ¶tz","Ġp ositiv","Ġkon t","Ġmein t","spr ung","spr Ã¼n","spr echen","di en","ĠForm alisierung","ĠVor gang","ĠVor stellung","ĠC ha","ĠC ode","alis ierte","ĠLe v","Ġwelch er","Ġbei den","Ġher zustellen","Ġges etzt","Ġle bt","Ġr Ã¼ck","Ġtechn isches","ĠAus gang","ĠMensch heit","Ġsp eichern","du ktion","ges sen","ot el","Ġneu er","los igkeit","werk e","olog ien","Ã¼nst ler","stÃ¤nd iges","prÃ¤sent ation","Ġgen ug","Ġgen auso","wer fen","Ġgleich e","Ġgleich sam","Ġgleich zeitig","Ġgew issen","ĠInter esse","ĠWahrnehm ungs","Ġber echnen","Ġnie der","Ġpr inzip","Ġsol ange","Ġerst er","we g","Ġgem eint","Ġwahr genommen","ĠArbeit er","ĠErkenntnis se","ss embl","Ġbet rifft","ĠTheor ien","ign alen","kl ass","ĠComputer s","ĠSubjekt s","ad ox","Ġzus Ã¤tz","setz ungen","Ġfrei en","Ġgel angen","Ġzeit lich","lÃ¶ s","ĠZust Ã¤nden","Ġentwick elte","Ġbew ir","Ġbew usst","ĠUr sprung","mÃ¶ glichen","yn chron","ele v","ord net","An der","sk op","ĠSign al","ĠBild ung","Ġleben sl","Ġsoll ten","arch ien","ĠlÃ¶ st","ĠOrganis men","ĠOrganis mus","Ġar beitet","ĠHirn are","for dert","Ġneuron ale","Ġneuron aler","Ġfol gen","Ġkognitiv e","ont an","ĠÃ¤uÃŁ eren","ĠÃ¤uÃŁ ere","ĠRel ationen","Ġdir ekten","tier te","tier ten","Ġallgemein en","ĠMateri al","ĠMateri alitÃ¤t","Ġsubje ktive","Ġsubje ktiven","eter archien","ĠOper ation","Ġint ellektu","ĠGen er","Ġentf ernt","oh Ã¤ren","oh Ã¤renz","Ġ1 8","Ġ1 9","ĠWer den","ĠlÃ¤n ger","Ġunterschied lichen","Ġkonstitu iert","Ġkonstitu ieren","ĠkÃ¼nstler ische","All es","pp ing","ub ner","ĠSe ele","tem pl","Ġbesit zt","ĠMedi um","ĠgrÃ¶ÃŁ eren","Den ken","Ġna he","ĠSicht weise","ĠhÃ¤t te","Ġange p","Ġjeweil igen","ĠKonzep tion","ĠVorgÃ¤n gen","rÃ¤um e","ĠAufga ben","zÃ¼ ge","Ġdigit al","inu ier","ĠAkte ur","ĠfrÃ¼ her","ator ischen","utz er","ĠBeweg ung","ĠEnsem ble","Ġkomp l","ĠKind es","Ġgef unden","ĠBeding ung","ĠBeding ungen","ungsk raft","ĠGesam ts","ĠAllgemein en","ĠSpr echen","Ġbewe gt","ĠGest alt","rist otel","ĠVoraus setzung","vers etzen","Ġfal sch","ĠElemen te","Ġphysikal ischen","ĠDet ail","ĠFor sch","ĠFort schritt","ĠVerk nÃ¼pf","Ġletz ten","Ġschwier ig","ĠMetho den","ĠKlass ifiz","ĠSchriftstell er","ĠBuchst aben","Ġur sprÃ¼n","Ġag ieren","ĠrÃ¤um lich","ĠKopp lung","Maschin en","atastro p","Ġsug ger","Ġsub s","Ġabl aufen","Ġzeich net","Ġbeher r","ĠGan ze","ĠVermitt lung","ĠTo ol","Ġredu z","ĠAuseinander setzung","Ġwahrschein lich","Ġkommun izieren","ĠfortwÃ¤ hrend","Ger ade","Geh irne","Ġununter brochen","alÃ© ry","ĠGrun de","ĠWil le","Ġperm anent","Ġprinzip iell","A r","D ann","G leich","H ofstadter","I hr","J a","J eder","M ein","M ensch","V or","V erm","W eil","W ahrnehm","Z u","a tischen","b ung","b ische","b rauch","b ruch","c a","d ust","e k","e gen","e tig","f Ã¤hig","f rist","g ar","g Ã¼l","i d","i p","i tik","i tieren","k und","k tik","l eist","l Ã¼ck","l osen","n ungen","n iz","o ti","o op","s es","s ehen","s muster","s eitig","s ieur","u e","w ur","w enden","z in","z ur","z iel","Ġ Ã¶ff","en zen","er weise","Ġd ist","Ġd ynam","Ġd ritten","in ter","in nt","un der","un kte","ie ÃŁen","ie geln","st eine","st Ã¤nden","Ġs eman","Ġa ssozi","ei ger","es p","es ser","es itz","Ġw om","Ġw orden","sch n","sch eute","Ã¤ b","Ã¤ be","Ã¤ uÃŁ","Ġv isu","Ġein f","Ġein her","Ġm ag","Ġm oderne","Ã¼ gt","ge ht","ge geben","or gan","or no","gen ann","ĠS ein","ĠS Ã¤u","te te","Ġb elie","Ġzu einander","icht bar","et ten","et enz","ier ungs","Ã¶ hn","ĠG ren","ĠG leich","ĠA ktivitÃ¤ten","ĠA ssembl","ĠM us","ĠM achen","ĠM echan","ĠM eme","ĠM ilie","ĠE ss","ĠW eg","ĠK n","ĠK Ã¶pfen","ĠK rÃ¤fte","ĠK yberne","ĠK atastrop","le gung","Ġf lex","Ġf all","Ġf ast","is ation","ĠB eh","ĠB il","ĠB ot","ĠB Ã¼ch","ĠB esitz","ra g","ra di","ra ucht","us kri","mm e","Ġer f","Ġer kannt","Ġer gibt","Ġg ing","Ġvon einander","Ġwir kt","Ġver d","Ġver mitt","Ġan gew","Ġan nehmen","Ġan alog","Ġan zusehen","ol t","ig ur","se qu","ĠD reie","de te","Ġge prÃ¤","pr Ã¼","ell os","ĠP hilosop","ĠP osition","ĠP unkt","ĠP apier","Ġauf s","Ġauf zu","ĠF eind","Ã¤n glich","ĠR ob","ĠN acht","ĠN amen","ĠN eugier","ĠN oti","re g","re ch","re ffen","ĠVer f","ĠVer l","ĠVer ein","ĠVer Ã¤nder","Ġo ben","ĠT un","ĠT raum","ĠT rÃ¤ger","ĠBe d","ĠBe ob","Ġl Ã¤ch","au en","ĠU nen","tiv e","ĠEr de","ĠEr klÃ¤r","ĠEr innerungen","ff eren","ĠL eib","he ben","ĠIn tegra","Ġent stand","Ġent gegen","Ġent Ã¤uÃŁ","ĠÃ¼ber tragen","ĠO utput","Ġdem nach","ieren de","Ġihr es","Ġihr erseits","Ġim plemen","ĠRe g","ĠRe ich","ĠRe aktion","Ġst etig","men te","ru h","ĠMa pping","zu gehen","Ġso gar","Ġso genann","Ġvor genommen","Ġselbst ver","ungs m","ut lich","ers Ã¶n","ers pe","uÃŁ ten","ale ktik","Ġmehr eren","ĠSch w","ĠSch ach","ĠSch reib","ĠSch wier","Ġt Ã¶","Ġt rotz","Ġre alen","ĠSt Ã¶r","ĠSt elle","Ġdar stellen","ĠUn ver","op p","op er","ĠSp ezi","ĠSp iegel","Ġe v","am e","ĠAn stren","Ġp ass","bl ei","In form","hÃ¤n gt","Ġman if","Ġkon krete","Ġkon templ","ĠKon tr","Ġab hÃ¤ngig","Ġab sol","Ã¼s s","Ġhin ter","eich e","di mension","gor hyt","zie s","lie gt","ĠEin fl","zeu gen","stell ationen","Ã¤ch e","Ġher an","Ġges prochen","Ġr Ã¼","geb unden","geb oren","ĠSprach en","werk zeuge","Ġmensch licher","ĠZeit bewuÃŁtsein","Ġeinz igen","etzt lich","iz itÃ¤t","Ġgen er","Ġgen etisch","Ġform ulieren","ĠEn ergie","Ġgleich er","ĠGes prÃ¤ch","ĠNetz e","ĠNetz en","ĠInter aktion","ichtig keit","wend ung","wend ig","schieden heit","Ġpr ogramm","ĠfÃ¼ hlen","Ġvoll er","Ġbeg innt","pl an","ĠÃľber leben","rie b","reib ungsk","Ġinn ere","Ġinter n","ĠWirk ung","Ġma teri","ob iolog","Ġverl iert","Ġverl ieren","Ġverl oren","Ġverl angt","arbeit en","fol ger","Ġsinn los","Ġbesch rÃ¤n","Ġzeit lichen","ĠProgramm e","ĠProgramm s","ĠProgramm ier","ap sen","lÃ¶ sung","Ġger ing","Ġbew uÃŁt","ĠAb grenzung","Al le","if ik","vol le","ĠHer aus","zus etzen","ĠSo zi","Ã¤uf e","ĠDi fferenz","ĠDi alog","Bei m","Bei spielsweise","ĠBesch reibungen","eut ung","Ġsolch es","Ġar tik","ga be","tr eten","Ġzwei f","ĠbloÃŁ e","for derungen","ĠRei he","Ġabstra h","ĠmÃ¶ gen","Pro gramm","lÃ¤ ss","Ġinhalt lichen","Ġobje ktiven","br ingen","Ġsymbol ische","geh end","ĠGeb urt","ĠMateri alisierung","ĠBereich e","ĠJahr en","fa ÃŁt","off e","Ġsubje ktiv","Ġerweit ert","Ġbed arf","Ġkonstru iert","Dem nach","fÃ¤ llig","ĠAgen t","na hmen","ĠWer te","prozes s","ĠTe ste","Ġunterschied liche","Je des","Ġfunktion iert","Ã¶rp ert","Ġkonn ten","ĠÃĦsthe tischen","ĠÃĦsthe tik","ifiz iert","Ġnotwend ig","Ġgeist igen","ĠDar stell","ĠabendlÃ¤nd ischen","ay es","kann te","zÃ¼ glich","Ã¼tz t","Ġkultur ellen","ator ische","Ġget roffen","ĠÃ¤nder t","ĠGel ingen","ĠMon aten","ĠPoten ti","ĠPoten zi","ĠVers uch","Ġberu ht","Ġwissenschaft liche","Ġwissenschaft lichen","Ġirgend etwas","fang s","ĠQu alitÃ¤t","ĠSyn chron","ĠSyn apsen","ĠKant s","ĠBeg rÃ¼n","ĠErgeb nis","Ġreflektieren de","wÃ¤r ts","ĠAre alen","Ġverst Ã¤rken","ĠZeug nisse","Ġlog ischen","sprozes se","ĠBetracht ung","ib el","ĠKorr elationen","Ġgrund sÃ¤tz","Ġbeob achten","ĠErschein ungen","ĠErwart ungen","ĠAuss age","Ġiden tisch","Ġeingeb ettet","ĠSu bst","ĠSynt hese","ĠBen utzer","Ġerwar ten","ĠPol itik","ĠVerb esser","Ġsteu ern","ĠSpe zies","Ġgesp eichert","ĠÃĦ uÃŁ","Ġeinzeln er","ĠÃľbert reibungsk","Form ale","ĠprÃ¤sen tiert","ĠSach ver","ĠKre ativitÃ¤t","Ġerlau bt","Ġverab scheute","Ġverwend et","ĠHe gel","ĠHil fe","Ġimpliz iert","rib u","ĠbeschÃ¤f tigt","Ġdiskr eten","ĠKoord ination","sicher heit","ĠnÃ¶ tig","Ġnatur gemÃ¤ÃŁ","Ġneur obiolog","ĠMan uskri","ĠDo ktor","ĠDel fin","ĠHard ware","Ġschn ell","ĠStat us","ĠplÃ¶tz lich","Ġkont inuier","ĠCha os","Ġbewir ken","Ġangep asst","ristotel es","wur f","Ġdist ribu","Ġwom Ã¶glich","Ġbelie b","ĠGren ze","ĠEss ay","ĠDreie ck","ĠgeprÃ¤ gt","ĠPhilosop hen","ĠRob o","ĠVerÃ¤nder ung","ĠIntegra tion","erspe ktive","Ġmanif est",". )","B l","B esonder","C omputer","D escartes","E W","G en","I den","I ntelligenz","K ant","M eist","N etz","S E","S T","S ystem","S inn","S im","U r","V iele","W o","Z ur","Z unÃ¤chst","a un","b esch","d ik","d ingt","e tische","f se","f ik","f igur","g g","g n","g o","h es","h or","h le","i c","i ver","j en","k al","k rei","k unst","k etten","l eit","l ers","l eiten","m e","m er","m achen","m Ã¼ndigkeit","n ing","o ur","o tionen","p te","p assen","r ich","r et","s y","s ur","s om","s be","s eits","s raum","s ysteme","t hr","t schaft","u en","v Ã¶","w Ã¼r","w ill","w echsel","w achsen","y kl","z ei","z el","z is","Ġ *","Ġ =","Ġ ten","Ġ organis","en ten","en schen","en ntnis","er ie","er tig","er dings","ch e","ch mal","Ġd un","Ġd an","in ie","ie t","ie sen","ie ben","ie tet","st rÃ¤ger","st Ã¼cke","ich eren","Ġs eh","Ġs ens","Ġs etzen","Ġa ktiven","ei te","on nen","Ġw od","Ġw eg","Ġw achsen","Ġun sch","Ġun re","Ġun ab","Ġun ivers","Ġun zusammenhÃ¤n","Ã¤ re","Ã¤ he","Ã¤ qu","Ġi gn","an de","an ken","Ġv age","as e","Ġein s","Ġein fÃ¼","Ġein ige","Ġz iel","Ġz ers","Ġm ache","Ã¼ m","Ã¼ ben","Ã¼ ll","Ã¼ cken","Ã¼ hlen","ge stellt","ur e","al it","or i","or ten","or ien","or ph","ĠS uch","ĠS eiten","ĠS ammlung","ĠS eite","te sten","lich ung","lich ste","Ġau genblick","Ġk orr","Ġk ennt","Ġk ehrt","Ġk ohÃ¤ren","Ġzu zu","Ġzu gÃ¤n","Ġzu gesprochen","ar ten","ar bei","ar ning","ier ter","Ã¶ s","Ã¶ nen","ĠG rÃ¶","ĠG rupp","ĠG ott","ĠA bl","ĠA ktu","ĠA dr","ĠM L","ĠM it","ĠM ar","ĠM ind","ĠM ann","ĠM und","ĠM Ã¼ndigkeit","ĠM olek","Ġh Ã¤lt","Ġh alten","ĠE v","ĠW enn","ĠW asser","ĠK ombin","ĠK enntnis","le gt","le gungen","Ġf e","Ġf reie","Ġf ertig","is ieren","is od","ter en","ter ie","ra schen","ra gt","Ġer n","Ġer ken","Ġer fassen","Ġer setzt","Ġer fasst","Ġer zÃ¤hl","Ġer reicht","Ġer mÃ¶glichen","Ġg ingen","Ġg reift","ber eiche","ind est","Ġwir ken","Ġver gleich","Ġver hin","Ġver fl","Ġver schl","Ġver antwort","Ġver gessen","at oren","at our","Ġan thr","ol fse","ĠV ir","ĠV oll","ĠV alÃ©ry","ĠD e","ĠD er","ĠD un","ĠD igit","ĠD rang","de fin","ĠI r","Ġge he","Ġge geben","ent alen","ell em","ĠP o","ĠP u","ĠP op","ĠP rÃ¤","ĠP hys","Ġauf geb","Ġauf fassen","Ġauf bau","ĠF e","ĠF in","ĠF ehl","ĠF Ã¼hlen","ach tet","um pf","um ente","ĠR o","ĠR Ã¤t","ĠR oman","Ã¼r f","Ã¼r fen","Ġuns icheren","ĠN orm","ĠN utzen","ĠN otwend","ĠN Ã¼tz","ĠN eben","re bt","re cken","ĠVer d","ĠVer m","ĠVer fÃ¼","ĠVer wendung","ĠZ ett","ĠZ entr","ĠZ weif","ĠZ ersetzung","ĠT ieren","ĠT op","ĠT aten","ĠT erm","ĠT yp","ĠT enden","urch t","Ġaus gel","Ġaus Ã¼ben","Ġwer t","Ġl as","Ġl os","Ġl etztlich","eu ten","ĠEr zeug","ĠEr leb","ĠEr wachsen","ff e","ĠH Ã¶","ĠL esen","ĠL auf","ĠL eute","ĠL oop","etz mÃ¤ÃŁ","Ã¶n nen","ĠIn gen","ĠIn nen","ĠIn put","ĠIn tention","Ġent halten","rei f","rei ze","rei tet","ĠÃ¼ber sch","ĠÃ¼ber prÃ¼","ĠÃ¼ber raschen","ĠO nt","ieren d","ieren s","eil en","ĠRe den","ĠRe chn","ĠRe chnen","ĠRe ferenz","ĠRe duktion","Ġst ar","Ġst Ã¤r","Ġst Ã¤ndig","Ġst ud","Ġsch einen","ĠMa terie","hal tet","zu stÃ¤nde","od ie","ech e","ech ung","Ġvor nehm","Ġvor wÃ¤rts","Ġselbst re","ĠKunst werken","Ġeiner seits","ungs weise","steh e","end et","Ġkein em","ystem s","ul l","ul ationen","ul ierung","ĠSch Ã¶n","ĠSch alt","Ġt heor","Ġt yp","ren nen","ren nt","tisch er","tisch es","Ġre ale","Ġre zi","Ġre kurs","Ġdar unter","ĠUn sicherheit","op o","ĠSp eich","eigen schaften","ĠAn p","ĠAn der","ĠAn sichten","ĠAn nahme","ĠAn zahl","ĠAn nahmen","Ġunter s","Ġp ersÃ¶n","ĠÃ¤ l","Ã¶r t","fÃ¼ hl","ag in","ik ro","Ġkon tr","ĠKon ver","Ġab ge","Ġab zu","Ġab gesch","Ġab geschlossen","Ġab grenz","Ġab bilden","ick e","Ġet abl","spr echend","spr echung","ĠForm werdung","itt s","ĠBew ert","schie de","ĠNatur ges","lie be","lie derung","ver mÃ¶gen","ĠEin sch","ĠEin sicht","Ġzum indest","ĠGegen stÃ¤nden","teil t","Ġr el","Ġr eine","Ġr ies","Ġr elev","Ġtechn olog","ĠAus bildung","Ġex pliz","Ġex akt","ges p","Ġwar um","all u","Ġmensch lich","olog ische","ĠZeit raum","gorit hm","Ġj em","ĠSubje kten","Ġgen annt","Ġgen ieÃŁen","Ġgen Ã¼gt","Ġform aler","ĠAl tern","ĠEn titÃ¤t","wer ten","Ã¤r ke","Ã¤r fe","gra d","pf er","omplex e","Ġgegen seitig","ĠGes etzen","ĠGes etzmÃ¤ÃŁ","ĠInter essen","gesch ichte","ha fte","vor gang","Ġber eit","Ġber echnet","Un ter","Ġnie d","Ġkl einen","Ġpr im","ĠErken nen","Ġbeg ann","Ġbeg rÃ¼n","rÃ¤ gt","eig nen","ĠAuf bau","Ġgem Ã¤ÃŁ","zeich nen","Ġwahr nehm","iell es","ĠArbeit s","ĠWirk ungen","atÃ¼r lich","Ġverl assen","lau fen","Ġdenken den","Ġsinn lich","Ġsinn lichen","Ġbesch reibt","Ġgel ingt","ĠTeil en","sicht slos","ĠhÃ¶ ren","ĠIde al","lÃ¶ schung","gehen den","Ġvers uchen","ĠUnter schiede","ett ung","ĠEx per","ĠUr s","Ġgesch ehen","ĠZu hÃ¶r","Ġment al","itu ation","ĠEntwick ler","ĠEntwick lungs","ĠEigen schaft","Ġverw irk","Ġverw enden","ĠWissenschaft ler","ĠAbstraktion en","sk on","so fern","Ġbas ale","ĠHer stellen","ĠDenk maschine","ĠDenk werkzeuge","schau en","ĠIden tif","ĠKunstwerk e","Ġbesonder e","Ġbesonder er","ak tisch","ichte te","ĠDi fferen","ĠDi alektik","Ġgest altet","Ġentspr echend","ĠNeuronen ver","Ġsoll en","Denn och","fl Ã¤che","Ġwirk liche","Ġwirk sam","ĠFra gen","zep tion","Da ÃŁ","Da her","Da von","oder nen","Ġspr eche","Ġwichtig sten","ĠMet a","ĠMet ap","ĠMet are","ĠEm p","ĠEm otionen","Ġzwei te","Ġzwei wer","for schung","Ġfol glich","stitu tion","ĠMerk mals","Ġstatt finden","ĠÃ¤sthetisch es","Ġinhalt lich","Ġbegriff liche","reich end","ĠtatsÃ¤ch lichen","ĠZusammenhang losigkeit","br ingt","ĠwÃ¼r den","ĠverfÃ¼ gt","Ġdenn och","Ġallgemein er","Ġhervor zu","Ġhervor bringt","ĠNetzwerk s","ĠPerson en","Ġbed ingt","Ġkonkr et","Ġsprach lichen","Ġverk Ã¶rpert","ĠSpiel raum","ĠAut onom","ĠTe xt","ĠEreig nissen","Ġteil weise","All erdings","Je de","Kunst werke","Ġration ale","Ġration alen","Ġdis ziplin","Ġunbe dingt","ĠGroÃŁ teil","Ġfunktion ieren","ĠBesonder e","ĠBesonder heit","ĠPar tik","Ġbef indet","ĠVerhÃ¤ltnis ses","Ġsozi ale","ĠÃĦsthe tische","Ġjen er","Ġna h","Ġnotwend igen","Ġbr ingt","ĠkÃ¶rper lichen","ĠDis kurs","Ġoper iert","ĠMaÃŁ e","ĠKonzep te","ĠKonzep ten","gele gen","maschin en","kann ten","Ġdigit alen","inu itÃ¤t","Ġseit ens","ĠSim ulation","Ġkultur ell","ĠAkte uren","ĠfrÃ¼ h","Ġget an","ĠNar rativ","ĠNach denken","Ġschle cht","ĠVerschalt ung","Ġide alen","ĠMon sieur","ĠRhyt hmen","Ġvorhanden e","Ġvorhanden en","ĠVorhers agen","ĠGesam theit","Ġberu hen","Ġinterpre tiert","Dar aus","Sp rache","wor ten","wor fen","zusammen hang","zentr um","tis ierung","orte x","Ġben Ã¶","ĠKomp etenz","Ġerw eist","produ kt","ĠRes ult","ĠNeu es","ĠErgeb nisse","mensch lichen","Ġphilosoph ische","Ġmaschin ellen","ĠZusammenhÃ¤n gen","ĠEmpf indungen","Ġen g","Ġqu asi","Ġqu alit","Ġaktu elle","ĠAre ale","Ġanzu passen","ĠZahl en","Ġlog ische","Ġlok ale","Ġentscheiden den","ĠElemen ten","Techn ische","Ġ2 0","Ġeindeu tig","Ġeindeu tigen","Ġmathema tischen","Ġgrund le","Ġstabil en","Ġtrans klass","Ġprak tischen","ĠhÃ¶ch sten","Ġsynt he","Ġsynt aktisch","Ġunbew usste","Ġbein haltet","Ã¶pf e","beding ungen","ĠÃ¼bert reibt","ĠAns Ã¤tze","ĠEntsteh ung","ĠArtefa kte","ĠCod ierung","Ġres ul","Ġklass ischen","ĠÃľberzeug ung","ĠverselbstÃ¤ndig t","ĠFrag ment","ĠSchlÃ¼s se","ĠSchlÃ¼s sel","ĠAutom at","ĠNarration en","Ġnarrativ e","Neuron en","Ġunend lich","Ġkombin atorische","ĠGrÃ¼n de","Ġheu tigen","Ġfehl t","Ġerinn ern","ĠTag es","ĠThema tik","ausen de","ĠErweit erungen","ĠLÃ¶ sung","ĠInstr umente","echs eln","ĠUnivers um","Ġwiederhol t","verarbeit ung","Ġexter ne","Ġpro blem","ĠfÃ¼hl t","Ġbegrenz t","Ġhierarch isch","Ġgeschlossen en","ĠSchluss folger","Ġhistor isch","ĠHypot hese","Eben so","richt ungen","Ġel ement","eim nis","alk Ã¼le","Ġinf ame","ĠBele ge","Ġmitt els","ĠTit el","Ġlim bische","Ġpositiv es","ĠLev el","skop ischen","ĠHirnare alen","ĠKindes alter","ĠVerknÃ¼pf ungen","Ġsubs um","ĠTool s","Verm utlich","brauch er","gÃ¼l tig","ĠÃ¶ff ent","ĠMus ik","ĠMechan ismus","ĠMilie u","ĠKyberne tik","ĠKatastrop he","radi tion","ĠNoti z","ĠVerf asser","ĠLeib niz","ĠReich weite","blei bt","ĠKontr olle","ĠEinfl uss","Ġgleicher maÃŁen","Ġartik uliert","Ġzweif ellos","ĠVerbesser ung","ĠÃľbertreibungsk unst","ĠSachver halt","Ġbelieb ige","Ġmanifest iert","Besonder s","Sim ondon","Ur teil","sy ch","Ġdan ach","Ġwod urch","Ġunre flek","Ġign or","ĠzugÃ¤n glich","arbei teten","olfse gg","Ġaufbau en","ĠNotwend igkeit","ĠNÃ¼tz lichkeit","ĠErwachsen en","ĠstÃ¤r k","Ġkontr oll","ĠKonver genz","Ġexpliz it","ĠGesetzmÃ¤ÃŁ igkeiten","ĠDifferen zen","ĠSchlussfolger ungen",") :","- ,",". ,","B ubner","B EW","C ull","D i","D ort","F ol","G e","G em","H inge","H eterarchien","I N","J etzt","K ein","K on","L ogik","L atour","M e","M ir","M od","M Ã¶glich","M eme","N ar","N och","N etze","N atÃ¼rlich","S ein","S ind","S ol","S ondern","S ob","S eman","T hese","W er","W ahr","W erk","W elch","W eiter","Z iel","Z wei","Z wischen","] ,","a f","a ti","a ur","a ar","a den","a ÃŁ","a be","a he","a hmen","a fft","b b","b it","b esonder","b Ã¼ch","b rigen","b ettung","c es","c Cull","d ar","d lichkeit","d eten","d achte","d rÃ¼cken","e ge","e um","e di","e ca","g um","g eren","g ungs","g rÃ¼n","g ument","h ie","h aus","h esen","h ant","h Ã¼ll","i an","i den","i ken","i bl","i cken","k er","k Ã¼r","k ombin","k Ã¼nstler","k ohÃ¤renz","k opp","l es","l ang","l rich","m or","m et","m ord","n Ã¤h","n ern","n ive","o tion","o hn","p or","p ul","p position","p erspektive","r eit","r um","r ieren","r ische","r eten","r olle","r ess","s f","s z","s on","s ichtig","s amen","s wert","t l","t u","t elligen","t reiben","t rieben","t Ã¤u","t eile","u ft","u alitÃ¤t","u ktu","w ahl","y s","z ung","z icht","z ent","z wei","z weck","Ġ 9","Ġ Ã¶","Ġ ele","Ġ cod","en eca","er i","er o","er es","er ben","er kt","er genz","ch ten","Ġd r","Ġd ra","Ġd ul","Ġd istanz","in s","in telligen","un abhÃ¤ngig","un ruh","ie se","ie tz","st un","st eil","st ant","st Ã¤tigkeit","st ausch","ich tigen","Ġs or","Ġs elt","Ġs ystem","Ġs ign","Ġs ucht","Ġs amm","Ġs ynchron","Ġs ichtbar","Ġa ktive","ei tet","ei ma","ein em","ein bar","ein kind","on denz","Ġw eist","Ġw ichtige","Ġw endet","sch em","sch lieÃŁ","sch lieÃŁen","sch ritte","sch Ã¤rfe","Ġun er","Ġun ten","Ġun aus","Ġun kl","Ġun gew","el fen","el odie","ti l","ti ken","ti zip","Ã¤ d","Ã¤ te","Ã¤ sthe","Ã¤ ÃŁen","Ã¤ tigen","an o","an tieren","an zip","an schauung","as zin","Ġn ir","Ġn um","Ġn eg","Ġn eigt","Ġn Ã¼tz","Ġn ennen","Ġein heit","Ġein prÃ¤","Ġein iger","Ġein wirken","Ġein gerichtet","Ġz ei","Ġz Ã¤hl","Ġm achte","Ġm inde","Ġm odell","Ġm iÃŁ","Ġm erken","Ġm enschen","Ġm ikro","Ġm odernen","Ã¼ h","Ã¼ ge","ge stell","al ogen","al so","gen er","ĠS ens","ĠS inger","ĠS aur","te ste","Ġb raucht","Ġin nen","Ġin tention","Ġin sofern","ir nen","Ġk enn","Ġk od","Ġk op","Ġk aus","Ġk Ã¤m","Ġk artes","Ġk amen","Ġk urz","em ischen","em ische","it al","it ation","Ġzu st","Ġzu erst","Ġzu folge","eit Ã¤t","icht s","ar le","ar itÃ¤t","ar tigen","ar tige","et h","et te","ier bare","Ã¶ sen","ĠG ang","ĠG abe","ĠA ck","ĠA usst","ĠA ssozi","ĠA ristoteles","ĠM al","ĠM ut","ĠM ale","ĠM aler","ĠM emen","ĠM cCull","ĠM elodie","Ġal gorithm","Ġh undert","Ġh elfen","Ġh antieren","ĠE p","ĠW Ã¼n","ĠW oll","ĠW ill","ĠW ichtigkeit","ĠW orten","ĠW olfsegg","ĠW ege","ĠK od","ĠK Ã¶nnen","ten de","ÃŁ e","ÃŁ ten","Ġf l","Ġf lieÃŁen","Ġf eind","Ġf ix","Ġf aszin","sen z","is men","eh n","ĠB it","ĠB ra","ĠB au","ĠB rie","ĠB indungen","ĠB ruch","ĠB ubner","ĠB ayes","ter s","Ġer eignet","Ġer Ã¶ff","Ġer reichen","Ġer fordert","Ġg l","Ġg ra","Ġg Ã¤n","Ġg renzen","Ġg ute","Ġg Ã¤be","ber flÃ¤che","ind ungs","Ġver f","Ġver sen","Ġver halten","Ġver stand","Ġver bind","Ġver fol","Ġver hÃ¤lt","Ġver fÃ¤l","Ġver ank","Ġver stehe","at men","at hie","Ġan erk","Ġan ges","Ġan ger","Ġan gem","Ġan gesehen","Ġan sprechen","Ġan sehen","Ġan wenden","Ġan geboren","Ġan fangs","ig ung","se bene","ĠV ekt","ĠV ater","ĠD a","ĠD ir","ĠD em","ĠD ing","ĠD ynam","ĠD escartes","ĠD ichtung","ĠD eutung","ĠI nt","ĠI ntelligen","Ġge bild","Ġge zogen","Ġge tra","Ġge gangen","Ġge fÃ¤hr","Ġge ziel","ent u","ell schaften","ĠP er","ĠP lÃ¶tz","ĠP itts","ĠP sych","Ġbe kannt","Ġauf ge","Ġauf geh","Ġauf zunehmen","ĠF al","ĠF est","ĠF remd","ĠF Ã¼l","ach er","ach ine","ĠR Ã¤um","Ã¼r de","ĠN e","ĠN eig","ĠN ieder","om as","om atisch","Ġmit zu","Ġmit teil","re chn","re geln","ĠVer w","ĠVer gleich","ĠVer fahren","ĠVer gangen","ĠVer zweif","ĠVer schiedenheit","ĠZ er","ĠZ ell","ĠZ erst","ĠZ itieren","ĠZ ykl","Ġo ff","ĠT a","ĠT rans","nt Ã¤tigkeit","ĠBe f","ĠBe stand","ĠBe geg","ĠBe zÃ¼ge","Ġda u","Ġaus lÃ¶","Ġaus fÃ¼hren","Ġaus gelÃ¶","Ġaus gesprochen","Ġaus macht","Ġl aut","au l","au er","au schen","au ffassung","au cht","eu ch","eu ert","ĠU ntÃ¤tigkeit","and um","and lung","ĠEr fol","ĠEr zÃ¤hl","iert heit","ĠH erk","ĠH ofstadter","ĠH altung","ĠH eterarchien","ĠH irnen","ĠL and","ĠL ust","ĠL ast","ĠL inie","he ure","ck ung","Ã¶n lichkeit","ehr te","ĠIn halten","ĠIn dust","Ġent z","Ġent setz","Ġent ziehen","Ġent werfen","ĠÃ¼ber nehmen","ĠÃ¼ber lassen","ĠÃ¼ber legen","ĠÃ¼ber fordert","ĠO pfer","ĠO pposition","Ġim agin","ĠRe flektieren","ĠRe produktion","ĠRe aktionen","Ġall eine","ri kt","ri ften","ĠMen ge","Ġst rebt","Ġst rikt","Ġsch l","Ġsch ritt","Ġsch lieÃŁt","Ġzw ang","ĠPro je","ĠPro gra","ĠMa kro","ĠWelt bild","zu ziehen","zu versetzen","ech t","Ġdies elbe","Ġvor bestimm","Ġvor ange","Ġvor liegt","Ġselbst bew","eist en","eist ung","Ġum s","Ġum so","Ġum fang","ĠKunst welt","ĠKunst menschen","ĠKunst kind","ut ing","og ra","ktiv wechsel","tig es","Ġkein es","ul ar","ĠSch war","ĠSch eitern","ĠSch ritte","Ġt ra","Ġt ot","Ġt ritt","Ġt ief","Ġt rennen","Ġt rÃ¤gt","Ġt reten","ĠSt r","ĠSt u","ĠSt Ã¼ck","ĠSt unden","ĠSt abilitÃ¤t","ĠSt Ã¤rke","ist en","ist ische","Ġdar gestellt","ĠUn bew","ĠUn sinn","ĠUn mÃ¼ndigkeit","ĠUn schÃ¤rfe","ĠMaschin erie","Ã¤h igen","omp uting","ĠSp ekt","ĠSp uren","ĠSp ontan","Ġe volution","Ġe ffizi","bar er","ĠAn alog","ĠAn forderungen","Ġunter sten","Ġunter drÃ¼ckt","ern te","ern icke","Ġp assen","Ġp hant","ĠSelbst Ã¤nd","ang ss","ag ert","hÃ¤n ge","form ation","form iert","Ein es","Ein erseits","Ein zel","Ġkon s","Ġkon text","Ġkon stant","ĠKon krete","ĠKon stellationen","Ġeigen stÃ¤ndiges","ĠEnt f","ĠEnt stehen","ĠEnt wurf","ĠEnt sprechung","hm isierung","sp rach","sp unkt","sp rache","Ġab gel","Ġab hÃ¤ngt","ĠâĢĵ ,","ĠGehirn a","ĠAr gument","Ã¼s se","Ġhin zu","ĠHand werk","spr Ã¼ch","ĠUm kehr","di fferenz","ĠForm ulierung","ĠBew usst","ĠBew Ã¤l","ĠVor schein","ĠVor komm","ĠVor schlag","Ġnach zu","Ġnach gesch","ĠC ortex","ĠNatur wissenschaften","ver halten","ver hÃ¤ltnis","ĠEin sichten","ĠEin richtungen","ĠEin bettung","stell bar","alis men","alis ierungen","ĠErfahr ungs","Ã¤ch tig","welt lichen","ĠGedanken s","techn ischen","Ġher r","Ġher ab","Ġher auf","Ġle arning","ĠGegen teil","Ġtechn ischer","ĠAus wirkungen","ser wart","Ġviel er","Ġex tern","Ġsp ontan","geb racht","ges ellschaft","ges etzte","Ġneu es","all el","all gemein","Ġmensch liches","ĠZeit en","ĠZeit punkt","gem achte","gem Ã¤ÃŁen","ĠMod ellen","scheid ung","scheid ungen","Ġj ahr","stÃ¤nd ige","Ġeinz iges","Ġlie ÃŁen","iz iert","ĠSubje ktiv","Ġform en","ion en","ĠEn d","Ġbl oÃŁen","wer te","pf ehler","Ġgleich zei","Ġweit gehend","Ġgew Ã¶hn","Ġgegen wÃ¤r","Ġgegen sei","ĠBegriff en","ĠGes p","ĠNetz es","ĠInter fa","ĠInter aktionen","gesch ehen","Ġber eitet","hy p","Ġsei end","ĠSinn lichkeit","ĠFunktion s","ĠFunktion sl","ativ es","bind ung","bind ungen","Ġpr ob","ĠReprÃ¤sent andum","ma teri","ĠAlgorit hmisierung","Ġvoll ziehen","Ġvoll zogen","Ġbeg reift","Ġbeg innen","fÃ¼hr te","eig ern","Ġerst ellen","halt ung","ĠÃľber gang","ĠÃľber legungen","rie bene","Ġgem essen","iv en","Ġwahr e","Ġwahr nimmt","Ġwahr zunehmen","ĠArbeit en","ĠArbeit steil","Ġma kro","Ġkomplex ere","ĠAu gen","Ġverl angen","ĠNerv en","hÃ¤ng igen","Ġwo bei","Ġwo hin","Ġverschieden er","ĠGrund lagen","Ġgel angt","ĠPers Ã¶nlichkeit","ĠTeil ha","Ã¶glichkeit en","hÃ¤lt nisse","Ġzeit leben","Ġzeit gemÃ¤ÃŁen","ĠzurÃ¼ck zu","ap ital","fall en","gehen s","Ġentwick elten","flex ive","ĠEx tende","ration en","Ġger ichtet","Ġbew ussten","Ġbew uÃŁten","ate ment","mitt elt","rÃ¶ m","ĠAb hÃ¤ng","ĠAb bild","ĠMÃ¶glichkeit sraum","Ġgesch rieben","ĠZu griff","ĠZu gang","ord nung","itu ationen","ĠBedeut ungen","ĠBedeut ungs","ĠEntwick lungen","ĠProzess ualitÃ¤t","Ġweiter er","Ġweiter es","Ġzusammen gesetzt","zieh ung","kr et","Ġverb inden","ĠHer vor","ĠHer stellung","ĠDenk prozesse","ast isch","zus p","gend s","Ġleben dig","Ġbesonder em","hin ein","pe kt","gew icht","ĠWesen s","Ġgest eiger","ĠIndividu alitÃ¤t","ĠInterpr eten","Ġklar e","ĠBesch rÃ¤nkung","Ġgeb rauch","voll en","Ġar gum","Ġwirk lichen","ĠTechn izitÃ¤t","zep tieren","ga ben","ĠEm ergenz","Ġausge drÃ¼ckt","ĠKopf es","Ġwesent licher","ĠmuÃŁ te","ĠEl tern","ĠWort es","ĠRei z","Ġir ri","ĠmÃ¶ gliche","ĠAktivitÃ¤t smuster","ĠKl einkind","Ġentstehen den","ĠSchl uÃŁ","Ġphys ischen","ĠÃ¤uÃŁ erlich","Pro blem","ok olle","ug l","ĠGesch ichten","Ġverm uten","Ġbegriff lich","reich e","reich er","Ġobje ktive","ĠHandlungs plan","ĠExistenz weise","ĠUrteil sfÃ¤higkeit","br icht","br ig","dr Ã¼cke","kehr en","tra gung","wo hn","Ġem p","Ġem er","Ġem otion","Ġdir ekte","Ġwoll te","ĠReflexion stÃ¤tigkeit","Ġallgemein e","ĠKonstru kt","ĠJahr e","So ftware","ph ase","ran sp","Ġbiolog isches","Ġins besonder","ĠAll es","ĠgrÃ¶ ÃŁt","Ġged ank","Ġbed Ã¼rfen","ĠNicht s","ĠNicht stun","ĠLeist ung","Ġkonkr eter","fÃ¤ ll","Ġdeut schen","Ġdeut sche","orden t","ĠGen ese","Ġob wohl","Ġentf alten","Ġhinein zuversetzen","ĠEinz elt","iÃŁ heit","ĠWer ken","ĠBestimm theit","ĠlÃ¤n geren","ĠProdu kte","Ġteil en","Ġration al","Ġration aler","Ġdi fferenz","Ġdis krete","Ġzentr ale","ĠSe arle","ĠBesonder en","ĠPar adox","Ġbef reit","ĠFl ori","ĠGefÃ¼ hlen","ĠHandlung stheorie","ĠSinnes eind","ĠSinnes wahrnehm","ĠSinnes organ","ĠSinnes reize","ĠZustand s","hol en","hol ung","struktur en","Ġnotwend ige","ĠkÃ¶rper lich","ĠWider spruch","Ġgeist ige","Ġgeist iges","ĠDis position","Ġgenau er","rÃ¤um en","Ġdigit ale","Ġkultur elle","Ġverteil en","Ġget rennt","Ġbevor zu","ĠNach hinein","fÃ¼ll ung","ĠBeweg ungen","ĠPerspe ktivwechsel","Ġwenig stens","ĠVerschalt ungen","ĠVerschalt ungs","det ermin","lei tet","merk m","Ġide al","Ġide ale","Ġkomp eten","rak tiken","ĠDas ein","Ġlang sam","Ġlang frist","Ġliegen den","Ġberu h","ĠBerechn ung","ĠhÃ¶her stuf","ĠhÃ¶her gelegen","ĠAllgemein es","Dar auf","abl Ã¤ufe","Ġend lich","ĠprÃ¤ zis","tis iert","ĠSpr Ã¼n","ĠGra de","ĠKomp on","pro ken","Ġbewe gen","ĠRation alismus","ĠNeu e","ĠBeg inn","Ġphilosoph ischen","ĠKont akt","ĠKont inuitÃ¤t","Ġspezi alisiert","Ġmaschin elles","ĠIndividuum s","Ent sprechend","etisch es","Ġhoch k","Ġfal sche","ĠZeug nis","ĠTÃ¤tigkeit en","sprozes s","ĠspÃ¤ter en","ĠMerkm alen","Ġphysikal ischer","ĠBetracht ungsweise","Re flexion","Re prÃ¤sentationen","Techn ologie","Ġse qu","Ġse quenz","Ġad Ã¤qu","Ġzer legt","Ġbeh alten","Ġbeh eima","ĠGer Ã¼st","ĠWir tschaft","ĠKorr esp","Ġbeob achtet","ĠVerstehen serwart","ĠErwart ung","Ġentstanden e","Ġandern falls","ĠAuss agen","Ġbasieren d","Ġentsprechen de","ĠMetho de","ĠVerarbeitungs al","Ġschlech ter","Ġgemeinsam e","ĠSchriftstell ers","ĠBuchst Ã¤b","ĠSelbstgesprÃ¤ch e","ĠWahrscheinlichkeit en","ahn sinn","mut ter","Ġunge heure","Ġunbestimm t","Ġmod ifiz","Ġbein ahe","Ġinform ation","Ġindividu elle","Ġzut rifft","ĠAd orno","ĠAnt worten","Ġho hen","ĠRÃ¼ck kehr","reicht um","ĠRechen oper","Ġsteu ert","ĠschÃ¶n e","ĠAns ammlung","ĠAnwend ung","ĠSelbstre ferenz","ĠEntsteh ungs","ĠArtefa kt","ĠCod es","Ġtechnisch em","Ġspiel t","Ġspiel en","Ġeinzeln es","Ġklass ische","ĠÃľberzeug ungen","ĠFrag mente","Proposition alitÃ¤t","ĠÃ¼ brig","Ġwechsel sei","Ġwechsel wirken","Ġintegr iert","Ġintegr ieren","ĠGrÃ¼n den","ĠMiÃŁ braucher","Ġheu tige","Ġfehl en","Ġerl angen","Ġerinn ert","ĠDu alismus","ĠErweit erung","ĠGew iÃŁheit","ĠLu ft","ĠLern vorgang","ĠInstr ument","ĠSchein s","ĠStand punkt","ĠphÃ¤nomen ale","Ġgesam te","Ġgesam ten","Ġexter nen","Ġklein er","ĠNervensystem s","Bew usstsein","Bew uÃŁtsein","ĠTex tes","Ġspezif ischen","Ġdetermin iert","Ġdetermin istisch","ĠHypot hesen","Hand eln","Zusammen hÃ¤nge","ack mor","Ġont ologischen","Ġde zentr","Ġsim ulieren","Ġak ust","Ġak zeptieren","Ã¤ll igkeit","Ġnorm alen","ĠnÃ¤h er","ĠnÃ¤ch sten","ĠnÃ¤ch ste","Ġzerst Ã¶ren","ĠzukÃ¼nf tige","ĠMein ung","ĠhÃ¤n gen","ĠhÃ¤n gt","Ġhil ft","ĠEing liederung","ĠEing angss","ĠWieder holung","Ġerfol g","Ġerfol gt","Ġanschau lich","Ġanalys iert","ĠFre und","ĠZuf all","ĠZuf Ã¤lligkeit","ĠZwischen raum","Ġlei der","ĠHierarch ie","ĠalltÃ¤ glichen","zusch reibungen","Ġreg ul","Ġreflex iver","Ġep isod","Ġpar allel","ĠrÃ¼ck sichtslos","lÃ¶s ungs","Ander erseits","Ġlebensl Ã¤nglich","Ġintellektu ellen","Ġ19 4","Ġkompl iz","ĠDetail reichtum","ĠForsch ungen","ĠForsch ungs","ĠursprÃ¼n glich","Ġsugger iert","Ġsugger ieren","Ġablaufen den","Ġbeherr schen","Ġbeherr scht","Ġreduz iert","Ġreduz ieren","Mensch liche","Wahrnehm ung","ip pfehler","leist ungen","Ġdynam ische","Ġseman tische","Ġassozi iert","Ġvisu ellen","Ġeinf achen","ĠAssembl age","ĠKn oten","Ġflex ibel","Ġfall s","ĠBeh andlung","ĠBil der","ĠBot schaft","ĠBÃ¼ch er","Ġvermitt eln","sequ enzen","ĠVerl auf","ĠBed Ã¼rf","ĠlÃ¤ch erlich","ĠUnen dlichkeit","Ġsogenann te","Ġselbstver stÃ¤ndlich","ĠSchach spiel","ĠtÃ¶ ten","Ġtrotz dem","ĠUnver stÃ¤nd","ĠSpezi fik","gorhyt hm","Ġgener iert","ĠbeschrÃ¤n kt","ĠProgrammier er","ĠDarstell ungs","ĠGelingen s","ĠPotenti al","ĠPotenzi alitÃ¤t","ĠSynchron isation","ĠBegrÃ¼n dung","ĠSubst anz","ĠÃĦuÃŁ erungen","Ġneurobiolog ischer","ĠManuskri pte","Ġdistribu tiv","ĠRobo ter","Gen au","Iden titÃ¤t","jen igen","som orph","vÃ¶ l","Ġseh e","ĠeinfÃ¼ gt","ĠSuch e","Ġkorr el","ĠkohÃ¤ren te","ĠGrÃ¶ ÃŁen","ĠGrupp en","ĠMolek Ã¼le","Ġverantwort lich","Ġanthr opo","ĠPhys ik","Ġaufgeb aut","umpf sinn","ĠNorm en","ĠVerfÃ¼ gung","ĠZett el","ĠZentr um","ĠTop ologie","ĠTerm s","Ġlos gelÃ¶st","ĠInnen perspektive","ĠRechn er","Ġstud ieren","Ġvornehm lich","ĠSchalt krei","Ġtheor etischen","Ġrezi proken","ĠAnp ass","ĠÃ¤l teren","Ġetabl iert","ĠBewert ung","Ġries igen","Ġjem and","Ġnied rigen","Ġwahrnehm bar","ĠExper i","ĠZuhÃ¶r er","ĠIdentif ikation","ĠMetare prÃ¤sentationen","ĠEmp athie","Ġzweiwer tigen","ĠAutonom ie","Ġdisziplin ieren","ĠNarrativ ismus","Ġschlecht hin","ĠbenÃ¶ tigt","Ġresul tieren","Ġelement are","Ġsubsum ieren","Ġignor ieren","ĠErwachsenen alter","ĠstÃ¤rk ere","Ġkontroll iert","Hinge gen","Nar rationen","Sob ald","Wahr heit","nive au","sz ill","Ġele kt","Ġdul det","intelligen z","Ġsamm eln","Ġnir gends","Ġnum er","Ġeinheit liches","ĠeinprÃ¤ gen","ĠSens oren","Ġkop iert","ĠAck off","ĠMcCull och","ĠBau steine","Ġgrenzen los","Ġverbind et","Ġverfol gt","Ġanerk annt","ĠFest legung","ĠFÃ¼l le","ĠVerzweif lung","ĠBegeg nung","ĠErfol g","ĠErzÃ¤hl ungen","ĠHerk unft","ĠLust prinzip","Ġvorange trieben","ĠSpekt rum","ĠSpontan eitÃ¤t","Ġevolution Ã¤r","ĠAnalog ie","Einzel ne","Ġabgel enkt","sprÃ¼ch e","ĠBewusst werdung","ĠBewÃ¤l tigung","Ġnachgesch alte","ĠgegenwÃ¤r tige","Ġprob abil","ĠArbeitsteil ung","Ġzeitleben s","ĠExtende d","Ġargum en","ĠHandlungsplan ung","Ġinsbesonder e","ĠFlori di","ĠhÃ¶hergelegen en","Ġbeheima tet","ĠKorresp ondenz","ĠVerstehenserwart ung","ĠRechenoper ationen","ackmor e","ĠEingangss ignalen","Ġanthropo zentr","' s",") ;","8 0","A d","A m","A re","A bstra","A ristoteles","B is","B eh","B ST","D E","D es","D eren","D igit","E L","E m","E t","F or","F lieÃŁen","F ehler","G rund","G roÃŁ","G rÃ¼n","G ambetti","G ed","G ott","G offe","H e","H eute","H aben","I CH","K I","K ann","K ultur","K Ã¶rper","K eine","K urz","K Ã¼nstler","K omplexe","K alkÃ¼le","L ange","M ehr","M itt","M eine","M oderne","N N","N T","N un","N eur","N eugier","N eum","O der","O per","P ar","P hilosoph","P lÃ¶tz","P erson","P erspektive","R hyt","S ich","S eit","S oll","S omit","S ymbole","S ST","T est","T heor","T atsÃ¤ch","T uring","T iere","U lrich","U SST","V ers","V alÃ©ry","W Ã¤","W issen","W Ã¼rde","Z um","Z war","] .","a o","a v","a z","a ber","a kte","a hm","a ÃŁt","a hnen","a ckt","a ven","b te","b ten","b eh","b ach","b ungen","b Ã¤nden","b spw","b ack","b rech","c tion","c ement","c tive","c aul","d is","d und","d acht","d ikal","d ynam","d aÃŁ","e z","e ktion","e tik","f r","f le","f ind","f rei","f eren","f ort","f los","f unden","f rie","f indet","f eind","f izi","g ger","g rÃ¶","g baren","g rupp","g lÃ¼ck","h st","h end","h ische","h ab","h Ã¤ren","h under","h omas","i ti","i de","i ff","i tische","i gem","i ÃŁt","i fferenz","i diert","i ci","i ogra","j ahr","k ern","k raft","k Ã¤m","k rÃ¤fte","k ulationen","l ern","l etzt","l ad","l etzte","m ei","m lich","m ischen","m os","m od","m Ã¤chtig","m Ã¶glichkeiten","n Ã¤","n atur","n ommen","n eig","n erhalb","n utzen","n itz","o u","o w","o z","o ge","o ir","o tiv","o ck","o tische","o zeÃŁ","p an","p ol","p iel","p pe","p erson","p unkte","r n","r inden","r ielle","r ichtete","s u","s ich","s heit","s ystem","s elch","s age","s modell","s ive","s formen","s wissenschaft","s ynchron","s orien","s grad","s zentrum","s acher","s weltlichen","s materi","t t","t ie","t on","t op","t ag","t iell","t rem","t reibung","t okolle","u sch","u hr","u tet","u tieren","v is","v iel","v itation","v oz","w eich","w Ã¤ch","w esen","w Ã¤l","w ichtig","w ahn","w ton","x im","z ig","z Ã¤h","z eigt","z eiten","z ination","z ersetzung","Ã Ħ","Ġ 0","Ġ 7","Ġ c","Ġ ei","Ġ rei","Ġ ru","Ġ ech","Ġ enden","Ġ tier","Ġ text","Ġ organ","Ġ ruh","Ġ orien","Ġ til","Ġ euch","Ġ ordent","Ġ 80","er ei","er isch","er liche","er lichen","er ne","er ste","er stellen","ch te","ch ste","ch est","Ġd Ã¼r","Ġd ro","Ġd ritte","Ġd euten","Ġd einem","in ent","in iert","in glich","in form","in im","in aten","in halte","in ci","un sch","un ken","ie ten","ie fen","ie uren","st u","st es","st ra","st Ã¼r","st ischen","st los","st abil","st gehend","st offe","st Ã¼cken","st rÃ¶m","Ġs it","Ġs per","Ġs yn","Ġs ele","Ġs uchen","Ġs echs","ei den","ei de","ei ert","ei ÃŁen","ei fe","es ein","es sel","es mÃ¤ÃŁ","ein k","ein stimm","ein lassen","on en","on ieren","Ġw elt","Ġw and","Ġw ache","Ġw omit","sch Ã¤t","sch wer","sch atz","sch ichten","sch reibungen","sch Ã¶pf","Ġun gel","Ġun voll","Ġun zeit","Ġun zur","Ġun wichtig","el d","el ung","el bar","el ang","el emen","el eistung","ti alitÃ¤t","ti ere","Ã¤ tig","Ã¤ ÃŁt","Ã¤ ugl","Ġi ter","Ġi sol","an e","an l","an s","an te","an ter","an fÃ¤llig","Ġv ir","Ġv ari","as en","as se","as ste","Ġn o","Ġn utz","Ġn eben","Ġein sch","Ġein gesch","Ġein genommen","Ġein geh","Ġein geg","Ġein geschlossen","Ġein gesetzt","Ġein geschrieben","Ġein atmen","Ġder zeit","Ġz irk","Ġz eig","Ġm yst","Ġm ussten","Ġm orgen","Ġm inim","Ã¼ t","Ã¼ gen","Ã¼ hm","Ã¼ hne","Ã¼ chen","ge ber","ge be","ge tieren","ge halten","ge bene","ge kommen","ge ahm","ge funden","Ġund ifferenz","ur al","ur teilen","ur onen","al il","al ische","al oge","or ischen","gen t","gen den","ĠS ich","ĠS te","ĠS ter","ĠS ing","ĠS ehen","ĠS agen","ĠS kl","ĠS ele","ĠS ub","ĠS eneca","ĠS ituationen","ĠS EL","ĠS Ã¤ugl","te stgehend","Ġb el","Ġb em","Ġb eit","Ġb Ã¼r","Ġb rauch","Ġb Ã¼nd","Ġb ayes","Ġb ietet","Ġb liebe","Ġin ti","Ġin einander","Ġin mit","Ġin str","Ġin dust","Ġin hÃ¤ren","Ġin stabil","lich te","ir gt","ir ische","Ġk Ã¼r","Ġk olle","Ġk atastro","Ġk apital","em pf","it ten","it zen","Ġzu kommen","Ġzu stÃ¤ndig","Ġzu schreiben","Ġzu kommt","Ġzu fÃ¤llig","Ġzu fÃ¤ll","Ġzu letzt","icht ungen","ar m","ar ben","ar heit","ar ische","ar fen","ar rt","den kt","ier baren","ier barkeit","ier ungsmuster","Ã¶ v","Ã¶ se","Ã¶ hnung","Ã¶ mischen","ĠG o","ĠG Ã¤n","ĠG ro","ĠG anz","ĠG lau","ĠG renz","ĠG anzen","ĠG alil","ĠA ff","ĠA ktiv","ĠA hnung","ĠA xi","ĠA NT","ĠM Ã¶","ĠM ehr","ĠM Ã¤ch","ĠM acht","ĠM omen","ĠM inu","ĠM oderne","ĠM entalen","ĠM achine","Ġal te","Ġal ter","Ġh ind","Ġh eter","Ġh art","Ġh alte","Ġh allu","ĠE ffizi","ĠE IN","ĠW as","ĠW and","ĠW esent","ĠW elten","ĠW iese","ĠW ernicke","ĠW unsch","ĠK or","ĠK ar","ĠK ern","ĠK ohÃ¤renz","ĠK Ã¶pfe","ĠK alkÃ¼le","ĠK NN","le digen","le hnung","ten d","ten tionen","Ġf or","Ġf at","Ġf re","Ġf and","Ġf ern","Ġf ing","Ġf und","Ġf rem","Ġf iele","Ġf asst","Ġf Ã¼nf","Ġf lieÃŁt","Ġf ragt","Ġf urcht","is iert","ĠB ett","ĠB ilden","ĠB ahn","ter grund","ra t","ra ht","ra schung","Ġer d","Ġer le","Ġer fahr","Ġer gÃ¤n","Ġer for","Ġer sichtlich","Ġer ho","Ġer folgen","Ġer leb","Ġer schaffen","Ġer ziel","Ġer faÃŁt","Ġer eignen","Ġer gebe","Ġg ere","Ġg rÃ¼n","Ġg Ã¼l","Ġg leicht","Ġg uten","Ġg lÃ¼ck","ber nitz","ber Ã¼hm","ind iv","Ġver h","Ġver z","Ġver le","Ġver inn","Ġver fin","Ġver gehen","Ġver eint","Ġver mÃ¶gen","Ġver mittel","Ġver rÃ¼ckt","Ġver folgen","Ġver stÃ¤ndlich","Ġver hand","Ġver zweif","Ġver schaffen","Ġver arbeiten","Ġver anl","Ġsich erer","at ten","at om","at her","at hem","Ġan d","Ġan p","Ġan gel","Ġan nimmt","Ġan gelegt","Ġan zunehmen","Ġan alogen","Ġan atom","ol itische","ig ten","ig ieren","se benen","se quenz","ĠD ich","ĠD ro","ĠD ang","ĠD NS","ĠD ress","ĠD auer","de ckung","ĠI CH","ĠI somorph","Ġge be","Ġge halten","Ġge tr","Ġge zw","Ġge fÃ¼hrt","Ġge fÃ¼llt","Ġge tragen","Ġge fÃ¼hl","Ġge zeigt","ent iell","pr ob","pr oduz","pr ogramm","ken ntnis","kt Ã¼r","ĠP re","ĠP ass","ĠP auen","ĠP raktiken","Ġbe an","Ġbe steh","Ġbe wer","Ġbe ding","Ġbe fassen","Ġbe finden","Ġbe weisen","Ġbe kommt","Ġbe arbeiten","Ġbe zÃ¼glich","Ġbe urteilen","Ġauf fall","Ġauf lÃ¶","Ġauf genommen","Ġauf gelÃ¶st","Ġauf treten","Ġauf machen","ĠF a","ĠF uÃŁ","ĠF am","ĠF angen","ĠF lieÃŁen","ĠF urcht","ĠF ou","Ġes kal","Ġden k","Ã¤n ge","Ã¤n gen","Ã¤n gt","ach ie","ach ung","ach ter","um fassen","bst en","ĠR om","ĠR and","ĠR uf","ĠR ausch","ĠR NS","ĠR ichtung","ĠR ahmen","ĠR ichtungen","ĠN eur","ĠN ot","ĠN Ã¤he","ĠN ietz","om s","om et","om ogen","Ġmit hin","Ġmit unter","ĠVer schie","ĠVer teil","ĠVer stÃ¤nd","ĠVer voll","ĠVer kehr","ĠVer wirk","ĠVer rÃ¼ckt","ĠVer mut","ĠVer Ã¤nderungen","ĠVer zwei","ĠVer allgemein","ĠVer hÃ¤ltnisse","ĠZ ers","ĠZ iv","ĠZ iele","Ġo szill","ĠT u","ĠT ra","ĠT at","ĠT ats","ĠT hese","ĠT ausende","ĠT radition","ĠT ransp","ĠT ippfehler","ro sp","ro ver","ĠBe ge","ĠBe acht","ĠBe vÃ¶l","Ġda vor","Ġda gegen","Ġaus halten","Ġaus gehen","Ġaus denken","Ġaus bilden","Ġaus reichend","Ġl au","Ġl esen","Ġl achen","Ġl iter","Ġl enkt","Ġl eisten","au ch","au igkeit","au stausch","il ett","il isation","eu tigkeit","ĠU top","be zieh","be zug","tiv en","and t","ĠEr zeugen","ĠEr forschung","ĠEr zÃ¤h","ff er","ĠGe ste","ĠGe fÃ¤hr","ĠGe wohn","isch ten","ĠH ol","ĠH och","ĠH aus","ĠH aut","ĠH ay","ĠH alte","ĠH allu","ĠH eide","iel ler","ĠL i","ĠL es","ĠL icht","ĠL ehr","ĠL og","ĠL ill","ĠL ondon","ĠL Ã¼ge","he bt","etz ten","ck er","enn ten","ĠIn kommen","ĠIn kohÃ¤renz","ĠIn nern","ĠIn tentionen","Ġent worfen","Ġent lang","Ġent ledigen","rei en","rei te","rei be","ĠÃ¼ber st","ĠÃ¼ber ein","ĠÃ¼ber zeu","ĠÃ¼ber all","ĠÃ¼ber leben","ĠÃ¼ber denken","ĠÃ¼ber setzt","ĠÃ¼ber nimmt","ĠO hn","ĠO ffen","ĠO berflÃ¤che","ieren des","eil ende","eil igten","Ġnur mehr","Ġdass elbe","ĠRe prÃ¤sen","ĠRe kon","ĠRe dund","Ġall ert","Ġall umfassen","och ten","och astisch","ri ge","ri alisierung","Ġst ol","Ġst and","Ġst ren","Ġst Ã¤nd","Ġst ap","Ġst aun","Ġst ati","Ġst erben","Ġst eigern","Ġst umpfsinn","Ġst ochastisch","men ten","Ġsch eiter","Ġsch rieb","Ġsch mer","Ġsch ieben","Ġsch afft","Ġsch einbar","Ġsch reibe","Ġzw eit","Ġzw ingt","ĠPro be","ĠMa schen","hal ter","ĠWelt anschauung","ĠWelt verhÃ¤ltnis","zu stand","zu ha","zu erkennen","Ġander em","od es","ech ter","Ġso weit","Ġso viel","Ġvor ge","Ġvor ver","Ġvor bild","Ġvor hers","Ġvor struktur","Ġvor nimmt","Ġvor schreiben","Ġvor zustellen","Ġvor gesehen","Ġvor zugehen","Ġselbst organis","eist ungen","eist erung","Ġum gehen","Ġum gew","Ġum gesetzt","Ġum fasst","ĠKunst mensch","ĠKunst produktion","ĠKunst mutter","ne ktion","ne uronen","ungs fÃ¤higkeit","ungs pro","ungs prozess","ungs leistungen","ungs schichten","ut h","ut zt","rach ters","tig er","end es","end ung","glich es","Ġha st","ul d","ul en","ul Ã¤ren","ul aren","ĠSch aus","ĠSch im","ĠSch we","ĠSch lieÃŁen","ĠSch affen","ĠSch riften","Ġt or","Ġt re","Ġt op","Ġt Ã¤u","Ġt ue","Ġt reffen","Ġt Ã¤tigen","ren ge","ĠGeh Ã¶r","ĠGeh eimnis","Ġre al","Ġre chn","Ġre aler","Ġre flek","Ġre cht","Ġre prÃ¤sentation","Ġre kombin","ĠSt ich","ĠSt atement","ĠSt renge","ist ente","ist enzen","ist rieren","Ġdar stellt","prÃ¤ gung","Ã¼n den","ĠUn gew","ĠUn mittel","ĠUn zusammenhÃ¤n","Ã¤h t","ĠSp ur","Ġe vol","Ġe go","bar t","Ġzur echt","ĠObje ktiven","am p","am age","am entalen","ĠAn re","ĠAn tik","ĠAn eig","ĠAn satz","ĠAn fang","ĠAn nÃ¤h","ĠAn bindung","ĠAn lehnung","Ġunter schieden","Ġunter legen","Ġunter ordnen","Ġunter liegt","Ġunter worfen","Ġunter schÃ¤t","aus setzung","aus lÃ¶schung","ern de","wei le","wei sung","Ġp lÃ¤","Ġp oten","Ġp erson","Ġp aar","Ġp olitische","ing ungen","ing ste","ĠSelbst er","ĠSelbst bild","ĠSelbst bewuÃŁtsein","ĠSelbst verstÃ¤ndnis","ĠSelbst dar","ĠSelbst iden","ĠSelbst zuschreibungen","ĠSelbst zersetzung","ĠSelbst auslÃ¶schung","Ġwenn gleich","bl ik","bl ose","fahr ung","Ã¶r m","In di","In nerhalb","uch te","fÃ¼ hle","hen folge","ag ramm","Ġman chmal","Ġman Ã¶v","Ġimmer hin","Ġimmer fort","Ein fach","uf en","Ġkon sequ","ĠKon kre","ĠKon stitution","ĠKon sequenzen","ĠKon sequenz","ĠGed achte","Ġeigen stÃ¤ndige","ĠEnt werfen","ĠEnt schiedenheit","ĠEnt tÃ¤u","ĠEnt deckung","hm ann","sp ezi","sp unkte","Ġab ger","Ġab spiel","Ġab zug","Ġab handen","Ġab gest","Ġab zusch","Ġab sur","Ġab schlieÃŁen","ĠSystem zustÃ¤nde","ĠGehirn reg","zen den","ab ri","ll en","Ã¼s sen","Ġhin reichend","eich end","spr icht","spr ozeÃŁ","spr Ã¼chen","ĠUm form","ĠUm geben","di um","di gem","di ktive","di ctive","per te","ĠForm ale","ĠForm eln","ĠForm alismus","ĠForm alismen","ĠBew usste","ĠVor teil","ĠVor handen","Ġnach dem","Ġnach geahm","ĠC omputing","Ġwieder zuerkennen","ĠNatur alisierung","ĠNatur wissenschaft","usst es","lie dert","ubje kt","ver l","ver fahren","ver standen","ĠEin st","ĠEin mal","ĠEin bild","ĠEin stellung","ĠEin fÃ¼hrung","ĠEin fÃ¤l","alis ierbar","ĠLe ere","ĠLe erstellen","ĠLe ktÃ¼r","Ã¤ch lich","ĠGedanken strÃ¶m","Ġbei de","Ġbei spiel","Ġher einlassen","ĠWahr nehmen","ĠGeist er","Ġges ehen","Ġges ucht","Ġle be","Ġle blose","acht ungen","ĠGegen Ã¼ber","teil s","Ġr einen","Ġr ichtige","Ġr oman","Ġr Ã¶mischen","Ġtechn ologischen","lichkeit en","ĠAus lÃ¶schung","ĠAus wahl","ser fÃ¼llung","esen en",
[...]
